#version: 0.2
Ġ d
o n
Ġ c
e r
Ġ s
Ġ a
Ġ p
e n
t o
i n
r e
t i
t a
e l
l a
Ġd i
r i
r a
l i
l e
t e
Ġ e
a n
Ġd el
z i
u n
Ġ n
Ġ i
Ġ m
r o
s i
Ġ in
h e
o r
Ġ f
on e
i a
e s
c a
o m
Ġ un
Ġ la
l o
Ġc on
Ġa l
q u
Ġ v
a r
o s
Ġp er
Ġi l
g i
c i
m en
Ġc he
c o
zi one
a l
Ġ t
d i
d o
Ġ qu
e t
Ġ ri
m a
Ġ C
s o
Ġd e
Ã ł
g li
Ġs u
Ġ l
z a
Ġ S
Ġ o
i s
v a
n o
Ã ¨
Ġc om
Ġ le
t u
Ġ 1
Ġp ro
v i
Ġdel la
t er
Ġ P
b i
s a
o l
on i
Ġs i
Ġ Ã¨
Ġ I
Ġ g
Ġn el
m p
Ġd a
s e
er e
Ġ L
Ġ A
on o
t to
Ġ M
c h
d a
t Ãł
Ġa n
p p
c e
Ġ re
Ġs e
m o
c he
v o
t ra
Ġ b
Ġ 2
Ġ (
a le
v e
Ġn on
Ġp re
Ġm a
Ġc a
n i
f i
Ġun a
Ġ h
t ti
m i
er a
. .
Ġ D
d e
0 0
Ġd al
Ġs o
men te
n a
an o
s p
er i
Ġp o
b b
Ġ "
in a
Ġp i
en te
Ġ R
Ġ G
Ġde i
c ia
t ro
men to
Ġf a
u i
Ġdel l
a li
en ti
g gi
zi oni
Ġs ta
ra n
Ġ gi
i o
Ġ B
z za
p o
Ġp a
Ġp ar
Ġ T
u o
Ġ N
v er
en za
Ġt ra
t ta
Ġv i
Ġdel le
s si
Ġ F
to ri
Ġ E
g a
Ġ -
c on
Ġ lo
Ġs p
â Ģ
s s
in i
Ġc i
ta n
u l
t ri
Ġqu es
Ġal la
c c
Ġd o
Ġ te
in e
t en
Ġt u
an i
Ġ ra
Ġs ono
t re
r u
g o
Ã ¹
Ġh a
d u
g g
f f
s ti
Ġn e
in o
en do
m b
m e
p a
Ġ u
Ġ V
Ġ1 9
er o
Ġpi Ã¹
Ġcom e
Ġc os
g u
Ġsu l
Ġm e
Ġm o
p i
h i
s so
ch i
Ġal l
ri o
et to
Ġan che
Ġp u
- -
Ġm i
Ġp ri
Ġf or
Ġa d
ĠL a
l u
Ġ gli
ri a
tu ra
si one
Ġp os
an do
Ġqu el
on a
Ġ li
ti co
c u
s ta
zi a
un i
ĠI l
en e
bi li
Ġcom p
en ta
Ġ2 00
fi ca
Ġs c
u to
d ia
an no
Ù į
Ġ 3
ĠI n
et ti
ta li
Ġin ter
Ġe d
Ġi mp
Ġnel la
Ġ U
Ġc ui
ggi o
Ġc o
Ġa v
z z
s c
Ġf i
s t
p e
Ġd u
Ġa r
n e
Ġa pp
Ġe ss
on ale
Ã ©
a re
v en
Ġa i
men ti
w w
ĠM a
Ġn o
Ġpro p
t t
gli o
g na
g ra
bb li
Ġt er
ta to
Ġ O
Ġb a
s sa
Ġal le
Ġpar te
Ġc ol
Ġde gli
f or
r en
Ġn a
Ġpre s
bi le
es so
_ _
Ġsu o
t te
Ġess ere
g no
in is
ta re
Ġc or
u m
es si
Ġdal la
.. .
x t
an a
el e
ti ca
si d
zi o
Ġ ti
g ni
i t
z e
te xt
f fi
| >
endo f
< |
endof text
Ġques to
Ġc hi
Ġv a
d ere
ci o
Ġla vo
c or
ĠC a
p er
Ġri s
Ġ ta
Ġ âĢ
ti va
u s
to re
ĠC om
Ġf u
Ġ 4
an ti
Ù ī
c co
s se
) ,
m m
Ġv en
ĠC on
t tu
Ġv ol
Ġs a
Ġ H
b a
mp o
la re
r in
ĠP a
Ġ or
) .
Ġ Q
Ġs ia
u ro
pp o
ĠR e
Ġg en
es e
gli a
Ġdu e
Ġpu bbli
Ġsu a
v ol
Ġs te
et ta
Ġper s
Ġdi s
bb e
r on
el lo
Ġm ol
es sa
ĠL e
Ġ 5
Ġan ni
Ã ²
-- --
ch Ã©
ti vo
Ġn uo
g e
an to
Ġlo ro
Ġ to
Ġpri ma
Ġin di
Ġsta to
Ġ Â
p era
ca to
i l
Ġv o
2 00
ĠA l
b o
Ġg ra
Ġ ,
re s
v ia
Ġv er
an te
t ter
en a
Ġ era
ĠQ u
Ġ bi
Ġs er
Ġso lo
Ġgi u
Ġdi re
gg e
ĠP er
u r
Ġgi or
m an
zi onale
Ġa cc
el la
u ta
/ /
Ġse mp
Ġri sp
qu e
c ca
Ġt ro
m bi
" ,
m ma
Ġh anno
di o
Ġdal l
Ġ19 9
or ta
tt p
: //
t ru
la n
Ġnel l
for ma
ch ia
d er
v ano
Ġa t
Ġh ttp
u ti
âĢ Ļ
ti tu
Ġe sp
Ġtu tti
ĠS i
Ġse con
f a
Ġre gi
g ia
es ti
Ġm en
c er
Ġm on
v is
Ġgi o
" .
s to
in k
on ali
Ġdi sp
O N
el li
zz o
mp i
Ġ 6
Ġsul la
ĠA n
Ġ en
Ġc re
k i
ww w
Ġne i
Ġ J
un e
ĠS e
Ġsp e
Ġs os
ri e
Ġcon tro
ci p
0 1
es s
Ġe s
u ra
.. ..
Ġc er
in g
vi tÃł
Ġcon f
m is
bili tÃł
Ġqu ali
Ġf in
Ġc en
Ġpo li
Ġra pp
Ġv e
Ġ W
ĠÂ «
g n
Ġg ran
a d
or d
Ġcon s
et te
ul ti
Ġa tti
z o
Ġpo i
Ġdo po
Ġques ta
Â »
et Ãł
Ġre la
in di
Ġle gge
Ġs tra
Ġqu al
Ġ K
Ġa u
zza zione
Ġfor ma
Ġun o
ĠD i
ink s
Ġp en
Ġp un
g ui
es ta
m ina
mb re
L inks
os ta
co lo
c en
Ġm an
h ia
co ra
es a
Ġs en
Ġal c
Ġser vi
c re
inis tra
ĠG i
Ġ ro
tan te
Ġso tto
ver si
E R
Ġli b
Ġfa tto
ti ve
Ġte mpo
ff er
al mente
Ġal tri
__ __
o lo
Ġnel le
ĠP ro
âĢ Ŀ
Ġf on
ĠâĢ ľ
Ġpos si
f eri
in ter
Ġf e
i ki
cia le
a zione
Ġf ra
Ġlavo ro
p re
Ġs tu
Ġqu anto
Ġsemp re
or to
ĠM i
men ta
tico lo
an za
Ġn os
Ġa bb
Ġc an
ti vi
Ġtu tto
ar t
ri tto
Ġ el
Ġg u
v in
om i
Ġun i
Ġ .
Ġdo v
Ġquel lo
Ġ 7
a t
g ani
tri b
Ġqu ale
Ġcom uni
pe dia
Ġo gni
en ze
Ġdo ve
ti che
c om
I l
! !
d enti
om en
iki pedia
W ikipedia
ca zione
Ġi tali
om a
Ġa ve
Ġ1 8
i e
Ġqu ando
Ġs in
Ġques ti
is te
c cia
d ente
ta ti
os a
Ġmol to
Ġc hia
tali a
Ġs ca
Ġm ar
o si
Ġv ia
Ġma ggio
Ġpro g
Ġpar ti
t tura
Ġf ar
Ġcon tra
Ġan cora
co l
Ġs enza
Ġquel la
Ġg a
L a
t in
un que
t r
Ġc ar
Ġsu cc
ĠA r
Ġ 0
cia li
is ta
Ġ1 0
e si
os to
qu i
p ra
Ġci r
ia mo
1 9
Ġin i
Ġpro f
ĠN el
c k
E N
Ġs tori
m er
ĠR i
gi one
Ġdel lo
Ġn um
tan to
ri g
Ġc ri
Ġsecon do
a to
g ono
Ġtra s
Ġs tru
T O
Ġvi ta
Ġper chÃ©
Ġs co
Ġda i
ti li
Ġd es
ra zione
Ġ 9
T I
Ġpri mo
Ġgi Ãł
ter e
l tre
Ġsta ta
Ġ os
Ġe uro
ta mente
z zi
Ġt en
A N
om e
tan ti
u re
c ci
sti tu
Ġ 8
Ġvi ene
ggi un
p ri
ĠP re
s tra
Ġcomp le
Ġ1 5
Ġpar tico
Ġste sso
s ci
o ver
Ġca so
si oni
sid ente
Ġmi li
h t
l mente
ĠM ar
Ġl u
ĠN on
r ono
un o
c chi
Ġfa re
ter ia
mm inistra
Ġn or
Ġprop rio
Ġs iste
ra to
Ġmo do
Ġh o
Ġs al
an d
gg ia
Ġpos s
Ġf un
p en
Ġcom ma
Ġte c
Ġe se
Ġm is
Ġp rin
Ġso pra
gu ar
Ġt re
ca li
Ġal lo
Ġdal le
Ġs ol
an e
ĠN a
er va
b le
ar ti
el a
an ta
Ġpres enta
Ġ >
Ġqu indi
u si
ran te
Ġe ff
er ra
A R
Ġcos Ùī
h a
Ġ1 2
Ġne c
un a
Ġa gli
es to
tori o
ĠD a
ar ticolo
Ġdi ce
Ġo pera
zi onali
Ġal tre
Ġre ali
Ġf ino
Ġf ine
r Ãł
to r
t ina
a si
Ġde ci
Ġtra tta
Ġmon do
Ġe si
L I
---- ----
ra re
i mp
ĠS a
Ġa c
Ġor gani
la zione
Ġa ff
Ġca pi
ĠV i
Ġri p
Ġ :
Ġ er
zi e
Ġu tili
Ġri cor
or t
f ini
r si
Ġrapp res
f er
e di
o re
ver so
Ġin forma
u sa
Ġpro du
ti ci
vi lu
v ere
Ġri cer
T A
d re
Ġpro ble
Ġcon c
Ġvol ta
Ġ2 01
Ġb u
Ġris ul
el le
to lo
b er
li a
s te
Ġb en
Ġca ra
g re
Ġtro va
ĠP i
Ġcon os
Ġsp a
ca re
E L
Ġgran de
go la
Ġcos titu
el o
Ġg ru
ran no
g hi
mis sione
s mo
Ġd om
e d
or re
Ġmen tre
ĠP o
Ġri chi
om o
Ġpro gra
Ġpa ssa
Ġcon di
Ġter ri
Ġs vilu
c ch
ĠD e
s cia
Ġ ele
es se
ht m
Ġci t
ul tura
p u
Ġ '
ĠU n
eri e
Ġsuo i
Ġto r
Ġse gui
an da
Ġnum ero
zi ona
ter o
Ġcol le
et ro
Ġsiste ma
Ġa ssi
gu a
ĠB a
Ġa ss
ffi ci
ssi one
Ġde ve
Ġc la
Ġ1 4
ta zione
g en
t on
v al
Ġter m
Ġm ani
Ġ1 6
Ġpre vis
ĠS o
sp on
gi o
ĠD o
Ġ1 1
Ġme di
Ġcon tin
cre to
or te
Ġave va
Ġspe ci
Ġ1 7
Ġfa mi
li o
el i
ĠC i
os tra
Ġcit tÃł
va mente
zza to
et er
l la
ĠL o
ci tÃł
Ã ¬
fa tti
ĠR a
Ġs vol
Ġcon sid
Ġse gu
Ġl un
O R
mp a
Ġfi l
Ġcara tter
ta le
Ġcos a
ve ce
Ġma teria
c ri
Ġv al
os o
Ġb ene
over no
Ġ1 3
Ġatti vitÃł
Ġtu tte
Ġs ar
e i
ĠD I
Ġsucc essi
Ġprin cip
Ġricer ca
er ci
Ġat tra
an zia
tan za
p eri
00 0
ĠF ran
E S
li tÃł
or ti
l lo
Ġba se
Ġnuo vo
Ġposs ono
Ġper io
si zione
Ġpres ente
Ġo ltre
ma to
Ġso ci
Ġar ri
Ġpun to
Ġsi tu
a mo
Ġsc ri
Ġ2 0
el l
Ġin f
ar d
Ġsta ti
da to
si glio
Ġ r
sso cia
Ġpartico lare
Ġp ia
Ġde fini
ta rio
Ġri guar
Ġsc uo
ssi mo
Ġma i
la ri
b re
Ġc al
Ġrisp etto
li ca
Ġ [
omen to
d enza
gli e
Ġpre sso
v enti
ĠâĢ ĵ
Ġin vece
ĠU ni
di ca
er ale
I n
is ce
ĠF i
cc u
Ġdi ver
Ġpo po
Ġcon ten
mp io
ĠL i
Ġo ra
Ġapp ro
u se
si e
vo le
Ġcon se
Ġsu i
m eri
ĠI talia
Ġli v
ĠC o
a u
is to
I N
zza re
Ġa g
Ġe con
Ġp orta
Ġgior ni
ri co
ggi or
Ġpro ce
Ġ rin
tto re
Ġta le
Ġin s
da re
Ġf o
h o
Ġs ci
Ġtec ni
Ġs ti
Ġo re
Ġimp or
Ġalc uni
f o
Z I
Ġmo di
Ġa uto
Ġsi cu
ter i
Ġcon te
u zione
va to
Ġ19 8
ĠM o
ĠR o
ar si
Ġo ggi
Ġpers one
tan do
Ġsul le
Ġ200 4
ĠS u
Ġpi cco
ca le
Ġ200 5
Â» .
Ġsar Ãł
ga to
Ġde creto
Ġs are
Ġan no
re bbe
Ġpro v
ĠR oma
d ono
a pp
Ġen tra
Ġt ele
m on
ti on
Ġ X
ĠS an
Ġeuro pe
Ġfil m
t ten
c ano
Ġle gi
Ġsul l
âĢ ¦
Ġri con
Ġnec essa
ĠM inis
1 0
ĠF a
Ġgior no
Ġtu tta
ta ri
u te
ĠM on
ĠN o
Ġc ultura
Ġi stitu
an ni
Ġlavo ra
I I
Ġpro do
la no
ĠN e
Ġservi zio
Ġv in
ri ca
Ġal tro
* *
Ġa mministra
es co
Ġmen o
Â °
Ġd on
Ġdi v
Ġo pp
Ġ Z
st ru
men o
Ġa ver
Ġcor so
Ġprogra mma
ĠC hi
Ġli mi
Ġver so
Ġp e
ĠS tato
Ġna tura
sc ri
Ġecon omi
lo re
i re
Ġnor ma
ta no
Ġ z
Ġin te
Ġa mbi
ord ina
Ġgio v
Ġm er
Ġg esti
d di
Ġne gli
Ġconsid era
Ġpre ce
Ġer ano
Ġe di
Ġna zionale
1 1
a s
Ġdisp osi
Ġle tter
ci pa
c ono
Ġini zia
ĠP ar
Ġi o
al l
Ġl ui
tu re
Ġpubbli ca
Ġor d
Ġgiu di
Ġpers ona
Ġe vi
Ġv eri
Ġca sa
Ġ3 0
mb ra
i d
fi ci
Ġm usi
ver o
Ġstori a
T E
tta d
Ġdo cu
Ġn ome
a c
Ġno i
Ġgru ppo
____ ____
al tro
la to
ĠC ar
bb ero
u t
Ġre gola
m et
Ġservi zi
200 5
Ġsoci etÃł
l ine
os te
Ġp or
ĠG a
m mi
Ġfin anzia
Ġpossi bile
Ġri feri
I A
o pera
Ġqual che
Ġt ri
Ġsegui to
Ġpa ro
ĠL u
Ġe sa
Ġ ulti
Ġda ta
Ġin fatti
Ġpro c
Ġso li
Ġattra verso
re zza
Ġm et
L E
os e
Ġsu e
Ġste ssa
Ġ200 3
Ġf er
Ġr uo
Ġfon da
zi ale
zi en
1 2
c ra
ĠT u
Ġa sp
e a
Ġm omento
Ġperio do
I S
Ġcontin u
Ġti po
ttu tto
a tti
Ġrappres enta
g ere
Ġf os
I C
g ine
Ġquel le
lo gi
Ġa ttu
Ġinter na
Ġcir ca
ven to
l ina
Ġs ette
Ġin con
Ġdi chia
Ġpoli tica
Ġcom pa
v ono
di mento
Ġfa vo
sti ca
Ġs erie
Ġgen erale
Ġa bi
Ġquel li
Ġsecon da
Ġsta n
Ġpos to
s ce
si a
Ġ ren
sie me
ra ta
c ce
Ġci ttad
Ġso gg
s la
Ġparte cipa
t ino
p ere
a cc
Ġmi glio
Ġsc el
a mbi
Ġs con
u so
Ġcol la
g he
Ġdu rante
d en
c cio
qu a
Ġprog etto
m oni
s tri
3 0
c ere
Ġdi ritto
Ġf uo
ĠCon siglio
Ġin ten
Ġcom pi
Ġcen tro
Ġm io
Ġgu erra
Ġp ren
Ġmol ti
ccu pa
Ġl uo
Ġnuo va
Ġpro vin
en o
Ġf re
Ġ2 5
vi o
Ġcom une
es te
ĠG io
pp a
Ġd eter
ĠC os
Ġsopra ttutto
Ġliv ello
w s
etto re
Ġprov ve
m ana
U ni
Ġques te
ta ta
l l
Ġcon trib
Ġo rig
c ente
Ġl in
or so
Ġpo tre
Ġcom unque
Ġqu i
Ġdice mbre
Ġav ere
Ġcon cor
c os
Ġ200 2
zza ta
on da
b bi
Ġd en
Ġcomp et
Ġpubbli co
t h
ĠCom missione
R A
lo ri
Ġmo d
qu ad
p h
Ġlo cali
Ġpi u
L A
ĠT ra
Ġterri torio
r re
Ġ ...
Ġese mpio
Ġra ggiun
spon sa
Ġ2 1
Ġra ga
or se
Ġo v
Ġpro te
Ġsvilu ppo
g h
Ġse mbra
po li
Ġ w
Ġl ine
va re
Ġpers onale
Ġba mb
â Ĥ
Ġda ti
âĤ ¬
Ġproble ma
Ġp es
Ġ tanto
m u
versi tÃł
a ri
st enza
Ġsemp li
Ġprof essi
Ġsen si
Ġs enti
Ġnos tro
2 0
e de
Ġindi vi
fi che
es t
Ġcla ssi
Ġricon os
ĠB er
R E
Ġ2 4
Ġ19 7
Ġa pri
Ġpo co
ĠIn ter
gni fica
Ġo tto
et tu
Ġp ra
om ina
fica zione
ci ta
Ġan n
Ġre sponsa
er ia
R O
Ġau tori
Ġci vi
c ro
un cia
Ġscuo la
.... ....
gu e
ch Ã¨
c ina
Ġcon ta
Ġqu asi
Ġdiv enta
co li
Ġca usa
qu o
N el
Ġ2 3
ĠG li
Ġimp re
Ġ200 1
Ġca mpi
Ġm ia
Ġdi f
Ġpre sidente
Ġ2 2
Ġqual c
Ġlu glio
Ġti tolo
ca ti
Ġgior na
or do
na io
Ã ¢
g ina
Ġo tten
ĠM e
m in
ĠPre sidente
ĠE n
ĠE uro
Ġb an
po si
Ġ |
ssi ma
Ġvol te
ul la
ON E
Ġsare bbe
Ġsi gnifica
fi co
er Ãł
Ġf ron
Ġprop ria
Ġmar zo
Ġterm ine
at tro
Ġgiu gno
Ġin sieme
Ġbi so
Ġd etto
Ġforma zione
Ġ200 0
ra le
Ġvi si
ol tre
Ġpa ra
Ġconf ron
Ġar ti
ĠT i
Ġe sc
mb ia
Ġ Y
f ia
sti co
pp i
ter io
Ġa ggiun
c chia
ĠD EL
ta ria
bb ra
d Ùī
Ġ k
Ġ on
ĠB i
Ġf ini
al tra
ĠU na
Ġsta bili
pu bbli
Ġletter a
Ġso ciale
Ġn ess
a sp
tri ce
Ġqu o
inter no
Ġc in
al le
Ġpi ano
Ġsen so
do tta
Ġb o
Ġdi versi
ga re
Ġm inis
Ġcon si
O M
Ġse de
ri tti
pp e
Ġno ve
Ġe cc
0 5
e b
Ġstu dio
Ġruo lo
Ġsp esso
Ġre al
bi to
an is
Ġalc une
Ġven ne
Ġga ran
Ġsi ano
ta r
Ġcolla bo
Ġsi to
Ġda gli
a v
Ġa mi
bi etti
ona to
Ġdeter mina
s u
Ġv uo
enta le
Ġ ru
I D
Ġ2 8
om ia
p ro
Ġfami glia
Ġf is
sa re
Ġeff etti
Ġri ce
Ġca pa
Ġf ran
Ġs or
via to
Ġmodi fica
Ġgen naio
d endo
Ġin oltre
Ġsette mbre
di ce
Ġinforma zioni
Ġpre ve
200 4
Ġs an
zza ti
Ġme si
Ġgran di
Ġabb iamo
Ġesc lu
a ti
Ġla scia
era zione
vi sione
bbra io
Ġdi ffer
tori a
Ġconc lu
Ġnos tra
al la
Ġel et
ĠH a
Ġin se
Ġpar la
Ġb ra
me dia
Ġg overno
Ġreal tÃł
ĠB o
Ġcom mer
I talia
Ġc u
Ġgra do
Ġimp e
Ġsu per
du zione
Ġindivi du
is ti
Ġregi onale
Ġs ettore
gi oni
n et
ĠS tati
Ġsc ritto
Ġat ten
0 4
cco l
e o
cch io
Ġapp ar
Ġinte gra
Ġsu peri
Ġc ura
Ġven gono
vi si
Ġcor re
Ġo f
Ġan d
tta mente
Ġlegi sla
c enza
t enza
Ġconf er
Ġal meno
Ġa tto
Ġs quad
ven tu
ĠI N
I O
es sione
Ġca mpo
Ġriferi mento
ver sa
Ġan i
ĠC h
b e
Ġv isto
Ġu ffi
Ġqu attro
ĠGi u
c enti
Ġg ia
eri to
Ġse i
Ġluo go
Ġstra da
Ġn i
ĠG u
Ġv ero
m ano
Ġmili oni
s erva
Ġ )
Ġpossi bilitÃł
ĠMi lano
Ġri vol
Ġprop ri
Ġdi ff
Ġsos ten
g er
Ġda v
Ġdel i
c lu
Ġa per
ĠF or
Ġ Ø
Ġtra di
si mo
a ta
Ġdiver se
ĠC ol
Ġeff ettu
Ġva ri
Ġsos titu
ĠH o
htm l
men tare
Ġcos e
tr ui
Ġda to
Ġcon to
Ġri le
Ġ2 7
st in
Ġfuo ri
Ġrapp orto
va ta
ttu re
ĠT or
Ġ2 6
Ġri f
Ġte sto
0 7
col tÃł
un ta
1 5
ch io
Ġi de
Ġmo da
1 8
ĠAr t
Ġs etti
Ġpu r
Ġo gg
Ġval uta
c endo
19 9
Ġfor se
ĠS ono
f on
Ġfe bbraio
Ġfor te
m ar
da ti
Ġa ffi
Ġsin go
l li
Ġm orte
Ġpres enza
Ġc io
pubbli ca
du stri
di ta
Ġen tro
ĠT o
r s
d es
Ġg ui
Ġpa ese
Ġm in
ra ti
Ġgesti one
a lo
Ġallo ra
Ġitali ana
Ġmer cato
Ġdis cip
va ti
ĠS er
ĠC en
Ġapri le
Ġa ssocia
Ġca mbia
i to
Ġstru ttura
Ġsitu azione
Ġle gg
vi so
Ġpo si
Ġmani f
ma i
Ġme mb
zi ali
Ġc ia
us to
un to
ĠD u
Ġnove mbre
Ġpri mi
os si
Ġpo te
Ġa ffer
zien da
Ġpre ci
Ġlun go
Ġu r
man e
Ġme glio
m mo
Ġse colo
b u
Ġpa ri
Ġsp ie
Ġfo to
ĠV er
Ġitali ano
Ġfavo re
Ġsicu rezza
Ġfos se
0 3
Ġfor ni
Ġlavo ri
om ini
om b
S I
tra le
Ġdis cu
Ġgra zie
Ġproble mi
Ġtra sp
Ġdisp oni
Ġno ti
ri s
Ġpro m
Ġparo le
Ġsta te
Â ´
Ġsta gione
qui si
Ġper i
Ġa re
ĠQu esto
Ġcondi zioni
Ġotto bre
Ġcontro llo
Â ł
Ġm essa
Ġo ff
Ġdes tina
tor no
ma ta
-------- --------
ga zione
g on
o o
Ġdi ritti
an n
tru zione
Ġfron te
. ,
Ġ2 9
Ġa sse
Ġav ven
Ġgiov ani
Ġt ran
ca r
Ġdi m
bi lmente
Ġrela zione
Ġlin gua
sa to
va zione
c con
Ġv ista
a ss
te go
Ġsin da
ĠN i
Ġse gna
atti vitÃł
m ani
ĠCom e
R I
ulti mo
) ;
Ġde vono
Ġti to
Ġn u
gi ca
ar di
Ġan ti
en i
Ġi mma
Ġin g
Ġquali tÃł
Ġper m
u me
Ġsia mo
? ?
Ġa sso
Ġca po
Ġ19 6
Ġdi ven
l le
Ġcomp ren
un ale
o ri
Ġsogg etti
Ġper cor
ĠDo po
uni tÃł
co la
Ġprodu zione
0 2
c le
a i
Ġe x
Ġ &
Ġesp re
ĠD io
in ale
Ġcor ri
Ġc li
lo gia
Ġme dia
t enti
Ġques t
Ġsucc esso
Ġdi pen
Ġnuo ve
Ġfin ale
Ġa de
sp i
Ġm ano
ĠØ ¨
Ġdi sc
Ġsp i
Ġconse gu
a m
ĠC or
u omo
5 0
Ġb re
Ġte ma
k e
an na
L e
Ġca si
i de
s on
ĠGio v
Ġimpor tante
vi e
A r
Ġdi p
gli ere
Ġ3 1
Ġso ciali
Ġsempli ce
ga ti
ter na
ri to
S A
Ġre te
Ġproce du
Ġspe ciali
Ġa mm
Ġre li
te si
Ġag osto
menta zione
ĠC ON
era li
Ġda re
Ġfu rono
Ġa tte
l en
ca ta
= =
Ġpun ti
ĠG overno
di ci
Ġnel lo
Ġco in
1 6
Ġorgani zza
om ma
ti ene
Ġmaggio re
Ġfor za
Ġri ten
Ġt he
Ġdom anda
Ġes erci
Ġra ccon
ĠRe pubblica
Ġcon cer
Ġnuo vi
l y
Ġte sti
Ġme zzo
Ġprece dente
mo cra
du ta
Ġinter essa
Ġproc esso
cu ra
m ia
Ġsu pp
ma re
Ġa s
Ġriconos ci
Ġcer to
ri re
a uto
Ġma ggior
ĠG ra
Ġsa ranno
Ġsegu enti
Ġle i
Ġprop rie
da ta
Ġav uto
ph p
c ino
Ġtro ppo
Ġlib er
Ġpen si
Ġtec no
Ġca p
zz e
an g
O L
ĠI I
r d
t elli
Ġfa ci
ĠS ta
g enza
v esti
1 4
Ġriguar da
Ġcons u
Ġter ra
Ġ( "
c ando
0 6
Ġ199 9
A L
Ġqu ad
Ġrappres en
Ġsci enti
Ġpotre bbe
Ġcom in
1 7
li e
Ġu omini
Ġre sta
Ġva lore
Ġar tico
Ġri us
Ġpa re
Ġrichi esta
p ar
Ġv era
Ġesp eri
Ġpubbli ci
ĠJ o
ĠAn che
Ġ19 4
Ġani ma
Ġpre sta
Ġcor po
ZI ONE
Ġprodo tti
Ġm ostra
os ti
ĠP u
c che
Ġs f
trib ui
f t
g ano
Ġ ul
Ġinter venti
ĠS al
Ġper chÃ¨
g ini
li b
Ġdim ostra
Ġcittad ini
ĠA d
dia le
Ġpo sizione
Ġd eri
Ġc e
omen i
a tto
Ġtor na
Ġsu bito
Ġan zi
Ġdiscip lina
so la
1 3
ĠT a
Ġvol on
Ġav rebbe
Ġm ino
r y
Ġdisposi zioni
Ġveri fica
an ze
Ġos serva
te zza
mi ca
A n
Ġris orse
ambi to
vi ta
Ġpres enti
E T
Ġo pere
meri c
gna to
Ġdon ne
Ġitali ani
m era
Ġprop osta
Ġinterna zionale
Ġa li
Ġcan di
du to
p ia
Ġte mpi
ĠT e
Ġimpre se
dia mo
f e
Ġmis ura
Ġs ani
Ġregi stra
Ġri so
ĠL A
tti va
t y
o ra
Ġcio Ã¨
Ġ tali
ten do
ĠMinis tero
g ne
Ġse gre
C A
vo li
mministra zione
de o
Ġgio co
Ġca tego
Ġin ca
Ġva lori
200 3
Ġcomp re
c in
Ġmusi ca
Ġcomple ssi
Ġmoda litÃł
ga ta
mo re
tu ro
Ġu sci
Ġgiu sti
Ġfre qu
Ġbamb ini
da mento
Ġcomp orta
Ġb ar
Ġgaran ti
t ela
ĠPro vin
A l
ĠR is
cca sione
Ġgen ere
Ġo bbli
Ġcos trui
Ġnon chÃ©
Ġs et
Ġnor me
Ġstu di
tta n
t oni
gi co
Ġindi ca
Ġc ine
Ġm ini
u ri
Ġpra tica
Ġsuperi ore
Ġn Ã©
Ġparti re
Ġlavora tori
di to
b um
ĠS p
Ġlib ro
Ġve dere
Ġt enta
pp ia
Ġo ri
Ġinter pre
Ġta l
Ġdi sa
la r
Ġnecessa rio
Ġspeci e
Ġnec essi
zza te
k a
ven i
rs quo
mi co
s er
Ġor mai
l in
Ġsco la
Ġquesti one
ĠV al
Ġpa esi
uo re
Ġp ron
Ġpos sa
zi on
Ġfi si
e ci
ĠC ri
Ġapp li
tto ri
on d
Ġabb ia
Ġsquad ra
s ca
is cono
ĠB u
Ġcia sc
are a
âĢĿ .
Ġpo ter
2 4
Ġqu anti
Ġpoli tiche
menta le
b lio
ĠB ar
Ġline a
ĠR u
Ġmo vi
tiva mente
Ġdi se
Ġmol te
Ġcin que
Ġscel ta
Ġe ventu
Ġ enti
ina li
ĠRe gione
Ġra ccol
Ġfi gu
Ġfor mu
Ġdi ffici
0 9
mi o
Ġn omina
Ġv elo
Ġord ina
N A
Ġfi r
Ġpo tere
g ente
Ġf al
Ġrisul tati
i r
Ġs tre
Ġn ulla
s h
Ġte sta
2 5
ĠD is
Ġprevis to
Ġulti mi
ĠP ri
s ter
ini zio
lan cio
Ġi denti
s ero
ĠG ran
ran za
Ġcomuni cazione
Ã Ī
ta te
Ġfi lo
Ġsp etta
Ġs era
Ġo tti
ga mento
Ġo bietti
O S
ĠN ella
Ġpa dre
Ġt uo
Ġfa tti
Ġma la
Ġcontinu a
Ġa cca
ra no
Ġcaratter is
Ġcivi le
Ġcapa citÃł
Ġapp lica
Ġasso lu
Ġcaratter i
Ġf anno
Ġz ona
M A
Ġo ccupa
Ġpro va
Ġsu d
ra mente
Ġqualc osa
Q u
Ġvuo le
fica to
Ġs t
Ġfi glio
Ġin tro
es erci
Ġmanif esta
" )
Ġste ssi
Ġcoin vol
ma ti
ffi cio
om pa
ĠCom une
Ġri ma
Ġcontra tto
ssi mi
os tante
Ġlo cale
Ġprovin cia
Ġa dotta
ta na
do tto
Ġpre pa
ar te
tu ale
Ġ199 8
Ġd unque
Ġc res
Ġlu ce
Ġvaluta zione
2 3
2 6
Ġme to
Ġgiorna li
Ġfa se
e ti
oni ca
ĠC he
t s
si asi
Ġprog etti
en tra
zi almente
Ġp si
Ġau ton
Ġrius ci
Ġdi rig
an che
Ġri fi
vis ta
ssocia zione
b ri
Ġregi one
!! !!
ch er
' ,
Ġm ale
Ġgio ca
a ttu
Ġeurope a
Ġso la
ĠA le
con do
an co
ĠGiov anni
Ġco lo
ar ono
la ta
forma zione
ven zione
en so
Ġman ten
ĠG er
Ġterm ini
Ġprodo tto
Ġaff ron
Ġpubbli cato
ulti ma
Ġov vero
Ġa tta
Ġgu ar
Ġrisp on
Ġspa zio
Ġil lu
m ere
t el
ĠA L
or k
Ġi d
Ġcollabo razione
Ġconfron ti
s tro
de va
in te
Ġcer ti
d ano
Ġcomp on
Ġla n
t ente
Ġcen to
Ġcomuni tÃł
o p
Ġopp ort
da tti
Ġtras feri
Ġsol tanto
Ġcol lo
ĠUni ti
** **
Ġpa tri
Ġqual siasi
Ġd etta
ĠP ER
lan d
Ġdi men
Ġno te
Ġpro ba
Ġfon do
Ġfun ziona
Ġ5 0
Ġsu b
Ġ ero
Ġme de
E G
Ġsi mi
Ġva rie
Ġi scri
ran do
titu zione
n on
Ġsegu ente
Ġrif le
ri tÃł
Ġfun zioni
Ġchi e
u di
Ġco per
ĠG en
s co
ĠQu esta
Ġreali zzazione
Ġm ese
Ġappar ten
f fica
ĠMinis tro
sti che
ta gon
n ale
Ġti pi
Ġpassa to
bb iamo
ĠFran c
Ġpartecipa zione
Ġdon na
Ġfun zione
Ġre go
gi stra
ta zioni
Ġ /
Ġterri tori
ĠM an
gi mento
Ġcon vin
Ġdi ffi
Ġe qui
r ere
Ġcons ul
Ġter zo
Â» ,
r no
Ġfu turo
ĠT er
Ġav vi
Ġac qu
ĠMa ria
Ġu cci
â Ħ
ro ri
Ġare e
âĦ ¢
Ġpopo lazione
uni ca
Ġstra ni
Ġfran c
Ġpo chi
ĠV ene
tu to
e ta
os so
r ente
le se
Ġ199 7
E uro
Ġi m
2 7
Ġs inistra
ar chi
Ġprincip ale
ĠI o
Ġmemb ri
3 3
Ġcorri spon
Ġnos tri
b ra
Ġcons erva
Ġcons enti
âĤ¬ âĦ¢
âĢĿ ,
Ġfa ccia
ĠT he
A S
ĠS te
Ġstru menti
Ġ19 5
2 8
Ġele menti
Ġmon diale
Ġto tale
Ġp la
Ġgru ppi
Ġsu pera
Ġtutta via
Ġan dare
Ġra gione
Ġb lo
or gani
era to
eri ta
ggior na
ĠQu ando
Ġliber tÃł
ĠDi re
Ġde mocra
ĠS c
Ġma re
an ca
Ġdisposi zione
Ġtrova re
a te
C I
ali si
Ġpa ce
Ġris erva
di tÃł
Ġpos ti
d etto
Ġnecessi tÃł
Ġco ordina
men tali
Ġtu tela
Ġg o
Ġd ol
Ġri es
2 9
Ġc ro
Ġri v
Ġri la
Ġopp ure
ĠM essa
u ale
Ġe t
Ġfor me
moni o
ĠO r
Ġvi ol
Ġe mer
Ġesclu si
trib uzione
l d
Ġave vano
Ġpoli tico
esso re
x x
Ġimpor tanti
di menti
Ġl on
ĠG ia
i ta
C on
Ġos pi
Ġs che
tti vo
Ġin ci
Ġle g
I L
C H
Ġdi stin
Ġvo ce
Ġgiu ri
mi te
Ġva ria
go re
Ġga ra
Ġar ticolo
Ġpro fi
Ġrisp osta
en t
a ssi
i tato
ali tÃł
U N
Ġscuo le
Ġ www
Ġcomin cia
tan ze
Ġprovve dimento
Ġpers onali
mi tÃł
Ùį ,
ĠV o
Ġdov rebbe
Ġmod ello
menta ri
gra fia
Ġin vesti
ĠPa olo
ĠI L
mb le
C E
is mo
ac qua
Ġfranc ese
Ġdel e
Ġuni co
S e
Ġme ta
is s
Ġogg etto
Ġso v
Ġna zionali
Ġe ssa
Ġbiso gno
va te
Ġin dustri
Ġtecno logi
Ġ +
Ġness uno
Ġsta mpa
Ġma s
Ġabi tanti
ĠC er
Ġris chio
Ġver sione
on te
ar do
Ġapp ena
Ġchi esa
Ġi s
ĠChi esa
Ġlegisla tivo
Ġmo der
Ġresponsa bilitÃł
D I
0 8
Ġpar lare
Ġg over
Ġbu ona
j a
Ġconos cenza
Ġgui da
Ġrapp orti
ta mento
Ġdes cri
Ġcaratter e
cen tra
k o
Ġdire ttamente
Ġfi gli
9 9
ĠT ri
ca mente
ĠJ a
Ġpro tagon
d ine
Uni one
________ ________
Ġpreve de
Ġprin ci
ord ine
an ia
Ġdi a
Uni versitÃł
Ġstru tture
an de
mi ci
Ġ1 00
Ġta r
Ġfe mm
Ġcen trale
an t
Ġmedi ante
Ġami ci
Ġre sid
ber to
n er
Ġm etÃł
re bbero
bo ra
li ci
Ġar chi
tto ria
Ġsco po
men t
Ġin feri
4 5
ente mente
ga te
Ġgiov ane
ti le
mb o
Ġin vi
Ġsc ena
fi cio
Ġpar ere
si ma
Ġesp ri
Ġb ri
Ġrisul tato
Ġprincip ali
A M
et tare
sti ci
Ġvo i
Ġte a
!! !
le s
Ġre cu
Ġno ta
du rre
Ġbre ve
Ġcos Ã¬
ren o
Ġdeli b
Ġri forma
Ġrela tive
Ġrela tivi
Ġstra te
enta li
la zzo
blio te
Ġbi lancio
Ġ <
r lo
' .
Ġc el
Ġde dica
Ġel etto
V I
ba tti
Ġs fi
Ġpro mo
Ġrice v
Ġvi deo
Ġ *
Ġv ali
Ġcar ri
w are
D o
Ġul terio
ran ea
ĠAl l
Ġo ffer
ĠC re
Ġha i
Ġeconomi co
Ġpa ss
Ġperi colo
g enze
3 5
Ġimp i
con omia
Ġpu re
Ġfor ze
Ġme mo
ĠC orte
Ġpu Ã²
Ġgen i
Ġf en
in s
Ġo cchi
Ġsa pere
ĠNe w
a zioni
ba to
Ġcos truzione
mb a
Ġma ssimo
ĠCar lo
u tare
po ca
ĠD E
Ġsotto line
tto sto
Ġma cch
ambi ente
sa mente
ma tica
Ġvo le
Ġminis tro
cen to
Ġord ine
Ġmet ri
ĠFran cia
Ġesi st
ddi s
no ltre
ĠV ia
Ġri man
es o
âĢ¦ âĢ¦
Ġle ggi
Ġdiffici le
ren ze
Ġf ru
Ġartico li
Ġc uore
Ġri uni
Ġg ente
Ġprofessi onale
Ġbu on
ni o
Ġconos ci
2 2
Ġtri b
Ġ tanti
ti di
Ġcla sse
meri ca
ĠD al
ona ti
Ġur b
eri o
tre tto
zien de
Ġre sto
p arti
pp ure
mp ia
Ġu omo
mis sioni
ĠC ia
M a
Ġcon d
er si
Ġma dre
uti li
Ġe ssi
Ġca mpa
Ġpicco lo
Ġdis co
g enti
y a
Ġri ca
Ġinizia tive
o ccupa
ĠNa zionale
tu r
on na
la mento
tri ci
ĠS pa
Ġde sid
Ġpo ten
Ġconte mpo
ten zione
Ġre si
Ġacc or
Ġ ]
Ġparo la
Euro pa
bb ia
tra n
in f
Ġtecni co
Ġa meric
Ġi r
Ġtra mite
ĠProvin cia
an zi
Ġlib era
ra ggio
Ġg lo
Ġri tro
Ġtu ri
Ġsp or
3 9
Ġstu denti
la zioni
Ġno tte
Ġinter esse
Ġdiffi coltÃł
Ġindi ri
ĠB e
er gia
Ġc h
S O
co lare
ter Ãł
l ini
Ġapp are
Ġdi datti
Ġm erito
ra te
e x
ĠSer vi
ide a
Ġi po
l er
Ġco dice
Ġinf ine
Ġdav anti
Ġu sa
ĠI tali
t ello
Ġa gg
ma il
Ġpercor so
ĠA u
la ti
Ġo p
Ġte mp
Ġsp ese
Ġni ente
Ġim media
es p
Ġdav vero
Ġp uo
Ġg ro
posi to
ĠAl la
h n
Ġcultura le
R ES
A T
Ġsuccessi vo
zz ando
Ġacc ompa
esa me
ma zione
Ġregola mento
ra li
mbi o
C O
Ġri ti
va li
Ġimp ie
ĠF er
Ġsiste mi
Ġcre do
sp etti
ĠTor ino
Ġpiu ttosto
Ġe pi
200 2
Ġmaggio ranza
gi e
Ġcaratteris tiche
Ġcor si
ĠV en
ĠC OM
ga ri
Ġcon n
Ġdif esa
Ġm or
d ri
Ġreli gi
gra zione
Ġd et
Ġ x
Ġpri me
al lo
Ġcan z
Ġsp eri
pp one
on ia
Ġdiscu ssione
Ġrisul ta
Ġstori co
Ġtito li
u sione
Ġprogra mmi
Ġraga zzi
ce si
Ġdi stru
c ante
ne ws
Ġregi oni
Ġprevis ti
3 6
Ġba tta
ĠMi ch
Ġassi cu
Ġcri teri
om enti
Ġtecni ca
Ġeconomi ca
Ġparte cip
ĠI noltre
Ġb e
Ġdire tto
man ia
Ġdal lo
EN TE
in to
Ġfa cendo
d etta
Ġmala tti
Ġqualc uno
Ġcri sti
ar ci
ĠCen tro
Ġinter ess
Ġci c
Ġins eri
ĠT h
Ġs Ã©
Ġin no
ĠFranc esco
en si
con tro
Ġo cc
Ġe gli
ven ire
Ġfilo so
Ġo ccasione
se gui
Ġcol pi
Ġpro veni
ĠPo i
2 1
Ġfe d
3 4
ĠGi or
Ġc ele
Ġsal ute
m es
Ġra pi
Ġmili tare
Ġe sso
ON I
Ġper man
Ġben i
Ġma tt
3 8
Ġde di
Ġsp er
Ġasp etti
v era
ĠEuro pa
Ġcatego ria
si tÃł
Ġdov uto
Z A
Ġca rico
P er
p ero
Ġve de
da le
Ġa b
ti to
u ali
u mi
Ġdov rÃł
Ġcos to
Ġing lese
Ġtratta mento
Ġm os
Ġprincip io
N O
Ġla ure
e e
re ssi
Ġper f
ar to
Ġs om
Ġal to
Ġmet tere
Ġeurope o
Ġs cu
ra zioni
Ġcer ca
mon ia
Ġsu gli
Ġcampi onato
Ġ4 0
Ġscon fi
Ġcolo ro
Ġsetti mana
Ġgi un
opera zione
uo la
Ġpen sa
toni o
or en
ĠS tu
Ġgiudi zio
Ġn ord
Ġrisp etti
Ġvo glia
Ġconcor so
Ġm al
3 7
ĠIn viato
Ġv io
ĠPo li
Ġpo tr
ter no
Ġro man
Ġin clu
Ġdu rata
re sso
lan do
Ġa ziende
Ġvo to
Ġabb and
der si
Ġini zi
m os
Ġdocu menti
ĠP e
m s
Ġdire zione
ĠP RO
ĠNa poli
Ġmovi mento
Ġel a
ĠC la
Ġa zioni
Ġes tre
on do
Ġme cc
ĠSe condo
Ġmani era
Ġel i
in da
ĠL ui
Ġe du
Ġsco per
organi zzazione
Ġsvilu pp
w a
V A
Ġse pa
Ġ ?
Ġar g
Ġu mani
Ġte o
Ġincon tra
ĠAn g
Ġsc orso
Ġquo tidi
8 0
Ġcos ti
Ġvi gore
Ġp ol
Ġpren dere
di re
Ġs chi
Ġmeto do
Ġdire ttore
Ġprevis te
Ġso ddis
ca l
Ġcapi re
Ġpi ani
cu zione
S i
co le
Ġe ffica
ĠPa ese
Ġtele f
Ġu so
Ġquad ro
ena to
Ġd anno
ĠS ar
w n
ĠG re
........ ........
Ġlo tta
Ġchi ede
Ġs ele
Ġdocu mento
Ġmiglio re
m esso
stitu to
a der
ĠF in
c cato
Ġav anti
ĠInter net
. "
Ġcon qu
Ġv orre
ĠB ra
Ġmis ure
Ġotten ere
Ġa ggiorna
Ġvi cino
ĠF o
t ono
Ġqu ei
om et
al to
olo gna
Ġsos te
Ġrela tiva
ff a
ĠEuro pe
ĠFi renze
ĠA pp
a sse
Ġcon ce
Ġpro vo
Ġas col
Ġf inali
Ġobietti vi
Ġcarri era
Ġd ra
Ġra dio
Ġuni tÃł
Ġi mm
ĠCom uni
ĠO ra
ĠRis p
4 8
or g
c ana
Ġrip ro
Ġuffi ciale
tti ve
ma te
Ġstru mento
Ġmateria le
Ġesi ste
Ġesi genze
ssi oni
en sa
Ġvia ggio
d y
Ġri chia
U n
a g
ĠT re
er s
da te
ter a
c anza
Ġdi eci
Ġelet tr
Ġtu a
Ġcon ver
Ġsti le
Ġcon siglio
cci d
Ġpen sare
Ġanima li
Ġpotr Ãł
4 0
ĠE d
Ġv anno
Ġprop oste
ĠF u
Ġfa tta
Ġe cce
Ġpia zza
Ġa ssa
Ġb y
Ġcompet enza
met tere
4 9
Ġinter essi
Ġdeci sione
tter e
Ġcon for
Ġgen erali
gno re
Ġmaggio ri
u p
Ġ199 6
use ppe
Ġcres cita
ro v
Ġrin no
Ġpropri etÃł
ĠV a
la te
il la
Ġre cente
Ġconf li
Ġba sta
va le
ru ppo
Ġevi tare
di zione
en da
imp re
Ġistitu zioni
Ġassocia zioni
os s
Ġs to
ĠA N
lu b
Ġregi onali
Ġcri si
Ġnon ostante
Ġriguar do
Ġsu gg
ĠR om
Ġse zione
c t
N on
Ġriso l
Ġven i
T U
Ġcre are
y o
ta rie
po sizione
Ġpi ena
l ino
Ġla r
d ini
Ġinter vento
Ġli re
Ġ =
n ero
Ġi eri
Ġsca r
' s
Ġnumero si
Ġfer ro
quisi ti
Ġmin uti
Ġcontrib uto
Ġna vi
Ġsoste gno
Ġdes tra
Ġtecni che
ĠCa mera
Ġcar ta
r one
oni co
ĠN uo
Ġlimi ti
da zione
Ġrela tivo
Ġsogg etto
Ġparti to
Ġca ccia
ĠPar lamento
acc ordo
Ġv os
ĠJ u
omeni ca
Ġnorma tiva
ĠMar co
Ġresponsa bile
Ġrile v
Ġpresenta zione
Ġfami glie
Ġese gui
Ġpre di
i sola
fica re
ĠC an
ni tÃł
tra li
tori tÃł
Ġri torno
Ġcondi zione
in se
Ġsol uzione
Ġma ssima
a zienda
Ġpre so
Ġin viato
or sa
gna re
200 0
et tato
ri gi
Ġg re
Ġ ;
Ġ om
sc ritto
Ġf anta
Ġper Ã²
Ġstra ordina
Ġcapi tale
Ġvi cen
Ġs ce
Ġade gua
Ġconten uti
ĠB ologna
ren di
Ġmo tivi
Ġess endo
200 1
t uni
Ġpicco li
Ġar re
ĠGi useppe
Ġgiusti zia
ĠCom itato
Ġme zzi
p li
ĠA i
Ġinferi ore
v eri
di ri
ĠG o
Ġprinci pi
Ġpoli zia
Ġsotto p
Ġcir cos
p ol
ĠÂ »
Ġmo glie
os t
Ġb ru
Ġfigu ra
4 6
Ġper tanto
is si
Ġstan no
u zioni
eserci zio
Ġgiorna ta
Ġlun ga
Ġpres to
ĠAn dre
a a
Ġprece denti
gna ti
Ġprote zione
Ġveri tÃł
ĠCa st
Ġcomp eti
Ġsp esa
Ġal bum
li are
c ine
gra fica
en ziale
Ġspe ciale
ĠMon te
D A
Ġprofessi onali
tri a
amo re
Ġdu bbi
C a
Ġra ff
ar lo
Ġpa gina
Ġogg etti
Ġste sse
ĠS ci
es tro
9 8
Ġnecessa ria
Ġri co
Ġle tto
Ġgi ro
ĠCos tituzione
ĠC H
4 7
Ġpor tato
i mpi
Ġclassi fica
Ġvi r
vi d
L O
Ġi stru
Ġinterna zionali
mb e
Ġcompon enti
vo lo
u ter
Ġacc esso
T ER
ĠI II
5 6
Ġapp osi
Ġpopo lo
c la
Ġs ba
Ġt ru
Ġdi etro
Ġa bbi
Ġm ulti
Ġrip orta
Ġpicco la
Ġprocedu ra
Ġcre a
Ġimma gini
Ġcom unale
du ce
) :
Ġm eri
Ġde bb
sc oni
ĠM er
Ġpartico lar
Ġincon tro
Ġuni versi
es peri
Ġri pre
Ġpa zi
Ġdom ande
ĠS h
Ġpresenta to
ĠM art
gg etto
Ġcultura li
Ġar t
Ġv anta
Ġ j
Ġcontra rio
Ġin via
Ġfi le
Ġpartico lari
i mma
ĠC al
Ġse duta
Ġsol le
Ġmili ardi
Ġin torno
Ġpoi chÃ©
D O
ona re
Ġre ale
Ġm esso
Ġpubbli che
Ġesa me
Ġmo tivo
Ġla to
p ren
g ht
Ġvi vere
Ġeventu ali
Ġbiso gna
Ġproba bilmente
ĠW il
mble a
5 5
ĠNel l
Ġat tribui
Ġatten zione
e conomia
Ġin da
Ġa zienda
m one
ĠJo hn
Ġal terna
Ġde p
ĠGer mania
Ġtele visi
Ġarri va
Ġrego le
Ġb ella
s Ùī
Ġdiffer enza
sc ono
Ġmi ei
Ġca tto
Ġcon sa
Ġdefini zione
ĠG e
e poca
b ur
der Ãł
Ġne go
ĠM ol
d etti
Ġries ce
Ġne ga
Ġin tra
Ġricor so
is co
Ġfe ce
ra i
Ġquel l
Â º
ĠS anta
Ġs ess
Ġgeni tori
Ġs Ùī
Ġvisi ta
ĠAn tonio
Ġcon so
Ġ ÃĪ
U S
o ro
ggia re
Ġe tÃł
Ġnatura le
ffici ente
lu sconi
Ġprevis ta
Ġver rÃł
Ġliv elli
Ġlegi tti
Ġa do
ro ga
Ġden tro
Ġter rori
bliote ca
Ġm u
m essa
Ġnos tre
3 1
Ġa cco
mina re
or si
tori e
i m
A G
Ġprocedu re
sci ta
ĠPa esi
Ġperm ette
Ġcri tica
ĠF ed
m ando
ĠS ch
Ġc ul
vo ro
Ġcom ba
Ġnu cle
Ġdeci so
N I
Ġcel lu
mi che
Ġprom uo
Ġz one
P O
zz ano
mi la
Ġvi ttoria
Ġdire tta
Ġa da
Ġ199 5
Ġraccol ta
Ġ199 4
Ġbatta glia
Ġpos t
ena tore
Ġm ina
f ra
Ġsuper fici
Ġopera zioni
ĠPi etro
Ġmessa ggio
Ġpote va
Ġcampa gna
Ġlib ri
Ġsingo lo
Ġsuccessi ve
Ġal ta
Ġpre vi
ĠB en
ĠM edi
6 0
tta via
Ġma ssa
Ġmo tiva
alo ra
Ġsuccessi vamente
Ġre ddi
Ġpersona ggi
Ġalc un
Ġp al
ran ti
b al
tu tto
ppo sizione
Ġvi lla
ĠVene zia
b ale
Ġmemo ria
ĠP al
Ġcomple tamente
t ini
t Ã²
== ==
via mente
Ġgra du
Ġgra ve
Ġcompet enze
Ġ3 5
r oni
Ġgaranti re
gi ci
d s
os sa
Ġtras forma
Ġno to
Ġcom un
Ġdichia razione
3 2
Ġdi menti
II I
Ġformu la
8 8
Ġri mane
Ġfemm ini
lie vo
4 4
Ġchia ro
T he
Ġraggiun gere
i co
ss and
Ġorig ine
d el
Ġso le
Ġpi eno
gre sso
p le
Ġac qua
Ġdisponi bili
Ġin cre
Ġte des
bo li
Ġcomple sso
ĠS ul
. )
c ini
Ġdise gno
Ġa gi
Ġgiudi ce
Ġ Ã©
sid enza
Ġappro fon
Ġfar ma
Ġca rica
bietti vo
ma tori
ft ware
Ġri cos
Ġpro ssimo
use o
er to
Ġpensi ero
en ne
Ġren dere
Ġcon centra
Ġpri vati
mina zione
cia lmente
9 7
Ġpos so
Ġin n
Ġindi pen
Ġden omina
ĠI s
in anza
auto re
Ġe bbe
r enti
ani tÃł
Ġla sci
Ġdis tanza
Ġmateria li
tu ri
com e
in t
gg ere
ne o
g s
Ġconfron to
Ġconten uto
ĠG es
Ġav anza
Ġbamb ino
Ġcond anna
g ro
uta ti
Ġpia ce
es tra
Ġ6 0
Ġinse gn
Ġevi dente
Ġgover na
Ġitali ane
ono re
Ġesperi enza
Ġvi tti
lan te
omen o
Ġspeci fica
app ro
Ġparticolar mente
Ġedi zione
Ġcine ma
ss ero
Ġappro vato
AR E
Ġpassa ggio
s cio
Ġm ette
Ġe venti
ĠC ro
ĠC ha
tro ppo
Ġpor tare
Ġpubbli cazione
Ġm uo
Ġtra sc
Ġte mi
Ġset tori
mina to
Ġlan cia
gna ta
Ġacc er
Ġpre zzo
on s
Ġri duzione
Ġpa ssi
r ne
Ġcommer cio
esperi enza
or me
e go
ĠA v
Ġin sta
Ġde f
era re
Ġnum er
Ġqu a
Ġlib ero
Ġv enti
ro re
Ġdi gi
.. ...
Ġin d
Ġpa sso
Ġparti ta
Ġso pp
M EN
p r
ĠCri sto
ĠP ia
AN O
t una
Ġme dio
Ġcen tri
g an
a mministrazione
b y
vi le
ĠP RES
bi o
Ġu tenti
olo gia
Ġpa gamento
Ġba sso
gi che
Ġcom missione
Ġpro posito
l oma
Ġc ur
Ġtrasp orto
Ġ199 3
omb ar
Ġu tile
Ġimp a
Ġposs esso
Ġimpi anti
Ġg ri
ĠBer lusconi
ĠQ U
Ġsp ort
Ġquo ta
ĠF ra
ess ere
Ġad esso
u a
Ġfuo co
Ġdi batti
es tero
Ġcal cio
Ġdi verso
Ġele zioni
Ġes tra
Ġter za
Ġspie ga
Ġmili tari
Ġg e
Ġstan d
Ġ' '
Ġcomuni ca
anis mi
inter vento
Ġ199 2
Ġvi gi
ĠK a
ri etÃł
Ġtro vano
Ġsos p
ĠPri ma
Ġmiglio ri
vol uzione
Ġmon ta
Ġcapi to
c y
Ġreali zzare
Ġp ale
Ġcon cre
ĠY ork
Ġevi den
vi ene
Ġpos ta
Ġluo ghi
5 7
Ġqu arti
Ġorig ina
Ġfa ce
en to
omi ci
vol ta
n ia
li cazione
f re
Ġconsidera to
en dere
Ġpre sti
Ġcommer ciali
gna mento
tuni ten
Ġcos tru
Ġlegg ere
Ġco sid
un ti
Ġvera mente
Ġtrova to
Ġline e
Ġfor ti
Ġvi ve
Ġpre val
Ġtro v
ĠD el
ĠM en
Ġra gioni
Ġpoli tici
Ġpossi bili
Ġregi me
Ġca val
Ġsov ra
gn ia
lo ra
Ġpromo zione
il l
uni co
Ġmodifica zioni
Ġtradi zione
e ff
Ġi spi
Ġvolon tÃł
Ġes ten
Ġba sa
er ti
Ġlimi te
Ġpro ve
Ġimp edi
Ġmusi cale
Ġobbli ga
tion al
Ġcomp uter
via mo
c an
ĠRe gi
Ġsen tenza
Ġconos cere
Ġpi edi
vis a
Ġs cio
Ġfon di
pp io
sta to
Ġfonda mentale
Ġpa gine
Ġcan c
a de
Ġsta tuniten
glia to
Ġe men
Ġproc essi
ĠTu ttavia
Ġsicu ramente
Ġven dita
Ġmino ri
Ġconte sto
s tere
Ġd Ãł
Ġdipen denti
Ġsc om
a ria
Ġm ente
ĠN ord
Ġac quisi
ĠB re
ĠC it
A LE
gn or
Ġvi e
ĠâĢ ĺ
Ġprop one
esti val
pe vole
Ġpossi amo
Ġstu dia
Ġten uto
Ġdimen sioni
r ina
Ġdiventa re
Ġs ale
Ġu ffici
Ġcontrib uti
Ġin com
Ġfe de
Ġca ta
Ġsta tu
Ġfaci le
Ġmacch ina
Ġaffer ma
en zia
le y
Ġs for
R e
Ġl Ãł
ssi a
is a
Ġmedi co
Ġabbi ano
U R
ĠPro f
Ġvelo citÃł
Ġb el
Ġelet tri
Ġasp etta
Ġu mana
Ġsimi le
M O
Ġa ere
Ġori enta
anis mo
tti vi
Ġforma to
Ġprovin ciale
E C
b ella
Ġfinanzia ria
Ġconse gui
Ġban ca
Ġpo tuto
9 0
Ġinten de
Ġcor te
Ġambi entale
a da
Ġopera tori
re mo
st ente
u tato
Ġtu r
Ġcre di
ĠA R
Ġn ar
k er
Ġp ena
ĠDEL LA
ĠPa g
Ġann uncia
fer enza
Ġmas chi
Ġsitu ato
& #
Ġi mmo
tta re
E D
ĠCos Ùī
di s
B I
Ġco lore
Ġepi so
et ra
Ġca st
Ġnum eri
er anno
r ui
M I
Ġcre sc
Ġrichi este
7 0
Ġar mi
ĠI mp
b ina
ĠInter na
Ġappli cazione
ca te
P a
Ġ 01
s ando
Ġreali zzato
ri c
d do
Ġscienti fica
I stituto
Ġela bo
Ġcon ven
Ġal tra
Ġchia mato
Ġsupp orto
Ġfa m
Ġinter no
ĠV I
Ġprogramma zione
Ġb elle
Ġconsidera zione
Ġquali fica
Ġricor da
Ġperm esso
ĠT ale
Ġsuperfici e
Ġma gari
ĠS U
v enta
Ġmo du
Ġtesti moni
Ġcon fi
ma mente
Ġre quisiti
Ġpren de
tu ali
Ġorig inale
Ġri tor
Ġpro spetti
Ġse qu
IC A
ĠAl le
S S
Ġprotagon ista
Ġmemb ro
Ġma tri
ĠS il
f ano
ssi me
Ġfi glia
era tore
Ġcon vo
Ġpassa re
ĠCol le
di te
impre sa
etta zione
ci ano
Ġs cher
un d
Ġsitu azioni
Ġb elli
Ġorganizza zioni
ĠÂ ·
u fficio
ra mento
t one
in formazione
Ġle ader
Ġutili zzare
ini zia
ĠB ri
Ġaper to
Ġde si
Ġriconosci mento
diri ttura
Ġfen omeno
d one
Ġle ttura
Ġ200 6
Ġrila scia
Ġpa ura
ĠPu bbli
Ġsta zione
r la
Ġcos ci
ĠGra zie
eri mento
Ġw eb
Ġre ti
acc esso
Ġalc una
---------------- ----------------
Ġulterio ri
Ġma gistra
Ġlavo rare
Ġinf lu
ni co
Ġpresta zioni
ĠG I
or tato
5 8
Ġcompi to
Ġre fer
Ġgi usto
Ġri fer
Ġri tiene
Ġfonda mentali
Ġsingo li
9 6
ĠF e
Ġrela zioni
D i
Ġconsegu enza
ĠG eno
P ro
is tica
e gli
gre tario
Ġad dirittura
Ġami co
Ġpicco le
Ġde vo
Ġo ve
c Ã²
o biettivo
Ġattu azione
Ġf ol
Ġacc ordo
ĠA uto
P P
ci li
Ġf eli
as tanza
Ġchi esto
Ġt el
Ġfis sa
Ġman canza
Ġli sta
pi e
meri cano
de x
Ġness un
Ġarri vare
Ġma ter
or tare
Ġdi sse
Ġauto re
Ġtea tro
da menti
di co
ĠAle ssand
Ġin si
Ġris chi
ĠC A
Ġillu stra
m meno
ĠT ea
Ġnumer ose
ĠE ra
Ġriguar d
ra q
ĠQ ui
attu ale
si li
esco vo
ti s
b ar
ĠSu d
Ġd ina
o k
Ġsa la
Ġin t
Ġdiven ne
Ġdis tribuzione
no w
Ġd ar
e te
ĠS enato
Ġav ver
Ġren de
A u
da li
g endo
Ġca se
Ġsopra v
app licazione
Ġs ali
Ġsvol ta
ĠCia o
en co
Ġesperi enze
Ġide e
ĠLui gi
Ġchi u
Ġcostitu zionale
cri zione
lia ri
c li
Ġdov ranno
Ġo ccid
Ġpre se
cchi e
Ġt h
Ġle ga
gra mma
ĠE l
ĠLi b
Ġfra tello
Ġsos tan
Ġeurope i
j e
Ġve cchio
Ġo per
Do po
Ġpre zzi
un zione
Ġentra mbi
tu i
mis sa
7 5
Ġcom mi
Ġattu almente
ĠSo ci
Ġabb astanza
Ġautori tÃł
terio re
m me
Ġdiver sa
Ġmanifesta zione
pri re
Ġnoti zia
Ġe mo
Ġ199 0
tran no
ĠE mi
Ġ tan
re a
gra fico
Ġmodi fiche
imp or
dustri a
ri col
Ġri entra
gi or
Ġmod elli
Ġra cco
on g
Ġchie dere
ĠTu tti
ĠL ond
Ġsemplice mente
na li
Ġpersona ggio
ccu p
ĠV e
Ġla bora
c es
Ġscri ve
tta to
Ġba ttu
Ġproce dimento
Ġd anni
va mo
Ġdiff usione
ĠS pe
Ġdocu mentazione
Ġsan gue
Ġ tante
Ġv ale
Ġpatri monio
e me
E n
ĠPer chÃ©
Â Ń
gi u
Ġconsi gli
G I
era ta
a per
Ġsf ru
Ġpartecipa re
Ġcre azione
ter ra
Ġamministra tiva
Ġcon ti
Ġ3 6
Ġcoper tura
Ġpre occupa
Ġu mano
in io
Ġbi anco
ta l
Ġlun ghe
Ġp lu
Ġl Ùī
for um
Ġri ba
Ġdedi cato
f rica
ĠGes Ã¹
s che
Ġassi cura
ĠCon s
Ġna sc
Ġb al
Ġnatura li
Ġmi la
Ġid one
Ġrappresen tanti
imma gine
Ġso cio
Ġsare bbero
Ġvi ce
Ġspa gno
Ġre s
Ġmatt ina
m ini
Ġm ono
ĠIn s
is sione
t un
Ġsoddis fa
Ġsul lo
Ġamministra zione
Ġcontra tti
Ġso ftware
Ġspi rito
an ne
o bbli
o rig
Ġre so
Ġs ino
ĠCi r
Ġrichi e
v el
Ġa more
Ġdi o
Ġscel te
Ġpo tranno
Ġaffron tare
Ġstra de
ĠD ani
ĠIn fatti
en ziali
gen zia
zz etta
cca re
ĠCa sa
bi ta
ĠM u
al bum
Ġan ali
Ġesclusi vamente
ci lia
ar ri
Ġf an
utili zzo
Ġpes o
Ġdip loma
M P
parti mento
Ġsi ti
Ġcontrib u
Ġpredi sp
re i
in contro
R i
du cia
Ġinforma zione
2 01
Ġscola stico
Ġcandi dato
for me
Ġcons ente
ĠO ggi
ĠB or
Ġscri tta
Ġinteressa ti
Ã ¡
Ġsuccessi vi
Ġan alisi
Ġeff etto
ĠS tra
L o
Ġden uncia
Ġcer care
ĠAr ticolo
ĠS co
Ġarchi te
Ġspetta colo
Ġcos tante
ĠGi an
Ġamministra zioni
si mi
T TI
Ġ0 9
Ġscri vere
Ġsvol gimento
Ġv is
Ġini zio
r enza
du ti
Ġne mmeno
o tti
Ġsc ene
Ġdi alo
Ġfi ume
5 9
ini one
bb ene
Ġa m
Ġfa bb
Ġf io
Ġmo to
Ġassolu tamente
ĠE di
g ante
Ġp rio
w eb
n do
ĠV ol
Ġvi sione
guar do
Ġna scita
Ġentra re
Ġutili zzato
Ġse gno
Ġac que
Ġconsid er
8 6
ran eo
Ġra cc
Ġulti mo
Ġraga zza
s ten
Ġquanti tÃł
Ġca mm
" ),
5 4
Ġprog ressi
Ġfemmini le
ber t
ĠG ui
inizia tiva
Ġdire ttiva
ĠSi gnore
Ġv et
ĠPa rigi
ĠI V
Â° Â°
Ġocc orre
Ġpe ggio
Ġacqu is
Ġb or
Ġmo tore
Ġm us
Ġd omenica
ĠGi unta
b is
Ġdisc orso
Ġve i
Ġan tici
te c
Ġmi glia
Ġu gu
lo go
Ġsinda co
do tti
Ġposs ano
pi to
ĠT os
ĠA g
ĠPa lazzo
Ġ0 6
pi c
an alisi
si vo
Ġcolle ga
era ti
" ;
N o
Ġsal va
Ġforni re
Ġp om
Ġmalatti a
es tre
Ġprovve dimenti
Ġdibatti to
Ġmino re
g ene
Ġchia ma
Ġil le
Ġapp unto
Ġs omma
Ġcontempo ranea
Ġsoli da
ĠC u
Ġm orti
Ġac ce
OL O
t Ã¹
vie w
te s
Ġconta tto
Ġstrani eri
Ġco si
Ġconc etto
Ġnoti zie
Ġsi len
ĠDu rante
Ġfor tuna
a do
ani ma
C C
Ġven nero
Ġ201 0
p s
en de
e uro
Ġfa coltÃł
ĠL in
Ġsu cce
Ġpresenta re
Ġfir ma
Ġp on
Ġb ol
Ġass um
men tato
Ġu sare
Ġna to
v an
t ella
Ġoff re
Ġ osta
ĠE r
Ġvin to
ĠB r
Ġten ere
ĠS I
u d
inis ce
Ġdisponi bile
gna zione
Ġdichia rato
Ġprofessi on
Ġsuperi ori
mp e
es ca
Ġan ch
ĠQu esti
Ġe sse
Ġ199 1
gli or
in ta
logi e
Ġroman zo
Ġcostrui re
Ġtra tto
Ġor g
Ġte ss
Ġco lori
Ġes te
Ġriv el
Ġuffi ciali
zza zioni
si le
Ġtra ccia
Ġfor um
om anda
pre ssione
d enze
inter a
Ġsvilu ppa
Ġcanz one
lo g
Ġderi v
en n
Ġmini mo
Ġpo che
Ġc art
ĠS ca
Ġquesti oni
ĠB ro
ĠF re
sp e
ando si
Ġgiudi zia
oni mo
ĠRa i
Ġdetermina to
Ġs on
Ġdet en
la y
Ġcostitu ito
li co
Ġmede simo
Ġrecu pero
Ġsquad re
ĠQu indi
Ġfos sero
ffer ta
Ġtor n
Ġedu ca
Ġt era
ĠDi partimento
Ġcostitu isce
ĠMa rio
Ġvol uto
e men
s ano
in ge
Ġdis tribui
Ġtecni ci
ĠGeno va
Ġconfli tto
Ġdisponi bilitÃł
Ġper met
Ġfor n
ul l
ffi co
Ġfin almente
so le
Ġ0 5
cen ze
ggia to
b ini
Ġricor do
ĠLe gge
Ġli qui
Ġpre feri
d esco
Ġspa zi
Ġs orta
at tenzione
M i
Ġtecnologi e
ac qu
ĠT erra
Ġinter a
le gge
Ġscienti fico
Ġpotre bbero
ĠG ruppo
Ġci elo
ina litÃł
Ġeviden zia
Ġdra mma
ĠAndre a
Ġri e
ri che
Ġletter e
Ġimmedia tamente
Ã ¼
Ġfrequ enta
con da
Ġa zione
ĠE cco
Ġvin ci
ĠN ei
Ġpsi colo
in ci
Ġ ere
Ġqu arto
Ġfar lo
4 3
Ġm etro
Ġacca de
go lo
o v
Ġsoli to
Ġpre mio
G LI
vo la
ĠO li
vo ca
Ġsol di
4 1
8 9
Ġincon tri
Ġp orto
Ġn omi
a mm
ĠG ro
inter o
gn ano
Ġri vista
ĠB us
Ġt r
ĠTu tto
Ġn ero
Ġconclu sione
Ġpia cere
ĠD on
Ġacc etta
Ġstand ard
Ġsp os
Ġpi an
tti vitÃł
m al
Ġrifi uti
Ġrela tore
Ġsignifica to
Ġt ren
Ġso ggior
Ġbi o
Ġlaure a
Ġconfer ma
Ġcompet ente
Ġassi eme
Ġimpe gno
Ġco pia
d d
Ġa ge
ER A
Ġi rre
Ġprofi lo
Ġesa mi
Ġfa scia
8 7
er mo
p osto
stru ttura
Ġvo glio
Ġpen ale
A ssociazione
Ġotten uto
Ġtorna re
ĠIn f
Ġfal li
Ġav via
Ġspeci fiche
mp re
Ġvol ume
Ġcompa gnia
Ġdo centi
Ġbri tan
Ġb is
Ġ Ã¢
Ġsa p
Ġna sce
Ġov viamente
Ġper ce
4 2
Ġso ffer
ĠL E
Ġag rico
b ali
l lare
Ġ4 5
ĠH e
Ġmis sione
Ġtras missione
Ġcer ta
ĠCa po
Ġsvol to
d ro
Ġav endo
Ġter reno
Ġesp lo
Ġcomp osto
Ġvo ti
ĠC e
Ġness una
Ġmi cro
esi stenza
8 5
ni ca
onda zione
Ġgra vi
in dustria
er dÙī
Ġse mi
A mministrazione
C om
ggia mento
Ġleg ale
ĠT ro
AN I
ona ta
b ria
ĠO gni
li zia
m or
Ġnecessa rie
Ġrisp ar
obbli go
g ar
**** ****
Ġviol enza
us tria
F F
en na
Ġte desco
i po
Ġcom ando
Ġn n
Ġdemocra zia
ĠS pi
Ġattu ale
on di
6 6
Ġavvi ene
Ġpo esi
Ġtran qu
Ġpre scri
Ġpes ca
Ġcoordina mento
s al
Ġde cor
ĠT ur
Ġraga zzo
ffi ciale
fica ta
ĠX X
Ġdo bbiamo
Ġpro to
Ġmedi e
Ġat le
Ġri sa
ma tico
Ġtar di
Ġcivi li
vi de
Ġav rÃł
Ġcittad ino
Ġsta va
v es
Ġcon du
Ġatte sa
po le
Ġprof onda
Ġtenta tivo
Ġex tra
l tÃł
Ġb and
Ġpri vato
Ġsa bato
Ġcontro lla
Ġsegui re
Ġricev uto
Ġassi stenza
ĠW in
ĠP arti
Ġf lu
A merica
Ġsetti mane
ui to
Ġk m
o ccasione
re ad
Ġcommer ciale
a ssociazione
ĠM A
c anti
Ġgen er
Ġcompa gni
Ġper cen
Ġipo tesi
Ġsp ia
on n
ĠB ru
Ġconcer to
Ġpre visione
ed ono
li vo
Ġcomporta mento
ĠLond ra
Ġpre sa
Ġconcer n
Ġp elle
Ġrip ren
Ġi mmi
Ġcollabo ra
ĠS P
Ġentra ta
Ġsimi li
v ello
Ġresponsa bili
ĠâĢ ¢
ĠGior gio
ĠRo berto
Ġg ol
Ġspi ri
er re
an di
Ġaltre sÙī
i u
Ġdeci de
ĠB el
ĠB al
Ġspeci fico
tta mento
ar ma
b in
Ġdimen sione
Ġ200 8
ĠA t
Ġsos pen
r ona
vis te
Ġos pe
ina to
Ġsu ddi
Ġinno va
s k
Ġ200 7
Ġfavore vole
Ġpi ane
ziona to
Ġf ia
Ġcatego rie
Ġpo teri
Ġcir co
Ġproveni enti
ĠAl c
Ġman u
ĠMessa ggio
Ġaper ta
imp e
Ġcosci enza
Ġcon gi
Ġinter ro
A A
Ġm oni
Ġperman ente
Ġ201 1
Ġver de
Ġdubbi o
Ġsu ssi
Ġchia mata
9 5
u x
Ġfar si
ĠF erra
Ġg ene
Ġse di
Ġpen so
col lo
Ġo gn
Ġtra ffico
Ġasp etto
ho w
Ġnorma le
Ġfisi ca
7 7
Ġ201 2
Ġdove va
ĠFran co
Ġregi sta
eserci to
Ġfon ti
Ġgradu a
Ġdelib era
ttu ale
Ġcandi dati
ĠU N
gra fi
osi zione
Ġlingua ggio
Ġg are
i mento
f are
Ġco ppia
r mi
Ġcor rente
Ġnecessa ri
ĠX I
Ġven ga
Ġtrasferi mento
ri ere
ĠSpa gna
ĠServi zio
mon te
Ġvicen da
d or
T RA
ĠB ene
Ġcine mato
olo gico
Ġfi ducia
T TO
Ġper che
ricol tura
Ġman gia
Ġf esta
Ġscel to
ĠSc uola
ĠRe gno
o fferta
Ġfa sci
r ci
B B
Ġpopo lare
os ci
Ġdol lari
Ġat tre
met ri
Ġposi zioni
ona mento
Ġtor neo
Ġmo bili
Ġa ra
Ġricer che
Ġcontra ddi
Ġsuccessi va
Ġtra tti
Ġai uta
V E
uta zione
Ġal b
Ġcompi ti
Ġa ggi
gra fo
IN I
ĠPRES ID
Ġri tar
Ġdedica ta
zz ur
Ġinter ven
Ġimmo bili
Ġnuo vamente
Ġpre mi
cia mo
Ġse gn
ĠT ren
t ing
Ġcostitu zione
en nio
Ġlon tano
Ġ #
ĠE le
Ġvorre i
Ġsti pu
ĠRe gioni
Ġriso lu
Ġambi to
Ġpa d
Ġindica zioni
Ġso ff
z ano
Ġm omenti
T ra
Ġmi e
fi l
esta te
ĠX V
en nale
Ġper dere
ĠS olo
Ġ0 2
v ando
v endo
Ġpreci sa
Ġcos ta
Ġistitu ti
Ġ3 2
c tion
9 4
Ġcon tiene
Ġvi vo
Ġcer tamente
Ġqu alora
Ġlascia to
Ġatto rno
ZI ONI
Ġpro se
Ġcic lo
ĠLe ga
d ra
Ġgio chi
Ġen ergia
Ġveni va
ff e
ĠCo ppa
Ġtemp era
7 6
Ġciasc uno
Ġulti me
ĠN or
Ġ200 9
Ġmi glior
ĠZ a
Ġraggiun to
Ġo li
ĠMa ggio
Ġ7 0
Ġfunziona mento
Ġpi lo
Ġv esti
b us
Ġsvol ge
Ġsegu e
Ġpar tenza
Ġc m
Ġimp ossi
Ġsol uzioni
" :
Ġpo tenza
us ura
da mente
Ġdo tt
Ġs chia
Ġarti sti
Ġdi min
do va
b ia
Ġb ello
Ġsi gno
d ette
Ġsosten ere
Ġperio di
A TO
ĠM al
o pp
Ġciasc un
ĠUni versitÃł
Ġinf ra
V O
Ġm uni
9 2
ĠCa mpi
Ġde cen
Ġeletto rale
Ġav rebbero
Ġga s
Ġfiloso fia
Ġmanten ere
in dex
n el
ĠE x
Ġrispon dere
Ġsicu ro
Ġqual unque
v or
Ġteo ria
Ġorgani zzazione
Ġav esse
ĠS erie
ĠStu di
Ġferro via
ĠLu ca
Ġare a
ĠB ol
Ġg eo
f era
Ġpromuo vere
u sc
Ġcompren de
Ġlocali tÃł
Ġvo gli
Ġ ________________
li ta
Ġstatuniten se
Ġcre ato
tori ale
" ).
Ġsta re
ER E
Ġconsa pevole
du te
mo ri
emen damento
mb er
Ġpom eri
Ġimp rendi
Ġen er
Ġesp erti
Ġsp osta
ĠN ON
Ġconc essione
Ġgen era
Ġco er
Ġ201 3
Ġper so
N e
Ġver sa
u ma
pa ti
ere bbe
ĠM or
Ġpre venzione
ĠQu al
Ġindi cato
Ġdefini re
Ġin va
Ġtito lare
Âł k
ĠMo d
Ġconos ce
Ġu sato
Ġgu ada
inter esse
in qu
v anta
Ġa mericano
Ġpos se
une dÙī
Ġtu rno
Ġeffica ce
Ġindustri ale
Ġassa i
Ġpre venti
e qui
c s
Ġpro i
Ġambi ente
vi zz
Ġsa pe
Ġvitti me
ri chi
Ġaff a
ĠT ele
EN TI
s hi
Ġsal vo
a bb
ffici enza
ĠCa mp
Ġpar t
Ġba tter
Ġdichia ra
sse mblea
Ġricor dare
Ġbra no
Ġameric ani
AR I
u gia
8 2
Ġchia ve
ĠH ar
vi mento
in ten
ing resso
Ġamministra tivo
Ġtras fer
Ġpartecipa to
Ġapp re
ĠC I
Ġcapa ce
ĠG ar
Ġsvol gere
a ff
Ġcambia re
Ġfinanzia mento
Ġ @
ĠSi cilia
ĠCH E
Ġins er
si o
Ġf inalitÃł
Ġma rito
Ġpun te
Ġmi ra
Ġtr enta
Ġde cre
olo gica
Ġre tro
Ġsosten i
Ġte si
Ġsper anza
cia re
Ġeconomi ci
g in
m ine
Ġser ve
Ġte st
ĠFi li
ĠGen erale
Ġsci enza
Ġin qu
ess ero
g etto
gli anza
Ġsegre tario
mb ro
ĠS O
Ġcli ma
ĠO n
Ġgiu sta
Ġaccor di
Ġpre si
ĠEurope a
ru s
in ca
w ard
Ġnote vole
Ġrispetti vamente
r endo
Ġi gno
Ġeconomi che
Ġne o
eri co
Ġtecno logia
ĠRe gistra
Ġ201 4
ĠFor um
ĠGa zzetta
Ġm era
ĠE s
Ġv iss
Ġa mp
Ġm ona
Ġca mbio
Ġpar ro
dia li
ĠV illa
ĠW eb
ĠTos cana
omet ri
Ġman dato
Ġcontin ui
Ġrip et
Ġdip arti
zionali tÃł
U fficio
gra fiche
ĠO ltre
Ġro sso
Ġespre sso
Ġau mento
Ġciasc una
Ġsti mo
Ġdov rebbero
Ġinteress ante
Ġave vo
Ġnomina to
y s
Ġmi lle
Ġve cchia
Ġriv ela
Ġpro ssimi
Ġm orto
Ġca mp
ta ni
Ġmo rale
or ld
Ġdidatti ca
Ġdirig ente
ina re
Ġ9 0
Ġdirig enti
r ini
Ġraff or
Ġper altro
Ġdom ani
ĠR I
Ġno vitÃł
Ġa ma
Ġ ).
T R
Ġre p
Ġopport unitÃł
gra ti
Ġfavo rire
s con
Ġver ranno
Ġs el
Ġvo tazione
cor so
Ġiscri tti
âĢ ĵ
Ġaff in
le si
or mi
Ġpa g
Ġai uto
Ġ0 8
Ġso re
st ron
Ġsenti re
Ġa mpia
Ġmatri monio
on tan
l terra
Ġ201 5
ĠPRESID ENTE
Ġin ver
Ġba si
Ġs enatore
Ġlascia re
ĠCom unitÃł
G li
an s
Ġm one
Ġterritori ale
ĠDa ta
Ġan alo
ĠA cc
Ġambi entali
Ġperf etta
tte mpo
Ġcomple ta
Ġdo lore
ordina mento
ĠM c
ve di
âĤ¬ âĢ
impe gno
Ġstori ca
du m
Ġpre fer
mb ri
Ġcor sa
Ġde mo
ĠCa pi
tu dine
Ġco operazione
ĠT el
ĠB la
cer ca
Ġdi co
ĠS anto
Ġconfi gu
t rin
ĠP ol
trib u
Ġfra ttempo
gna te
Ġs po
ti vitÃł
Ġeffettu are
Ġalla r
Ġimma gina
Ġre ca
Ġre sp
u ol
oo d
l ui
Ġsoggior no
Ġdefini to
Ġper ci
Ġdo cente
Ġtru ppe
Ġrin gra
Ġconsenti re
va mento
Ġcostitu i
i denti
ĠM usi
Ġvos tro
a b
now iki
Ġemen damenti
Ġstabili to
Ġindipen dente
ĠGran de
Ġrichi ede
ĠD A
Ġ5 00
Ġpi e
Ġinizia tiva
Ġrappresen tante
Ġri usc
Ġopport uno
5 3
du cazione
Ġparti ti
O r
ĠSte fano
Ġsc or
Ġcomplessi vo
Ġassicu rare
con tra
5 2
ĠV in
ĠC O
Ġv ino
Ġne anche
s ura
ar co
ĠCon ferenza
Ġa ccol
Ġinizia to
e pi
Ġparti te
Ġre stitu
Ġindi cati
un g
' '
Ġchia ri
Ġaggiun to
Ġa f
ĠDu e
Ġimpor tanza
Ġave te
ĠO ri
uo go
ĠCon si
ĠU no
ve gno
p rio
Ġ3 3
Ġpron uncia
au tori
Ġsu fficiente
ĠC hia
ĠF orse
V i
ore sta
tto rio
Ġp one
Ġc lub
ĠItali ana
Ġcontinu are
Ġmater ie
Ġporta ta
Ġtradi zionale
tica mente
Ġpartecip anti
Ġconsu matori
Ġdo ppio
Ġlettera tura
Ġ3 8
Â ª
Ġreli gione
5 1
Ġproce dere
Ġpri vata
ĠCa ra
Ġpar co
ĠRe gola
ĠCa la
Ġrichi esto
ten a
Ġdetermina zione
Ġ0 7
ĠU SA
si va
Ġindi sp
Ġ> >
Ġquo te
Ġpa pa
ĠMen tre
H a
attu azione
cor d
Ġese mp
Ġsi g
imp osta
Ġban di
Ġ0 4
Ġinvesti menti
d on
Ġobietti vo
sta re
L i
Ġ3 7
Ġindiri zzo
essi oni
lib rio
Ġdo ver
p ria
Ġesist ono
ghi lterra
S P
Ġmovi menti
Ġ198 8
Ġinsegn anti
Ġc ru
er ano
Ġprop osto
Ġsi mbo
Ġ" "
6 8
Ġes ter
cc essi
e va
Ġcampi one
ĠTea tro
Ġcre dito
ĠAlessand ro
Ġdis tretto
Ġpa lazzo
Ġreddi to
Ġconosci uto
Ġutili zza
ĠRegi onale
ĠCit tÃł
Ġconsegu enze
do tte
Ġpro segui
Ġcar ne
Ġca pp
a tta
po re
Ġin for
i ca
u li
Ġci tato
Ġcol po
r li
Ġapp ari
Ġgia ppone
Ġsilen zio
Ġtratta to
Ġbi blioteca
ĠN O
Ġtran si
ĠM os
Ġraccon ta
ĠPar ma
Ġsa cri
com uni
Ġsce gliere
Ġ !
Ġri t
Ġvogli ono
ĠM AR
c ani
Ġchi l
ĠC es
Ġrifle ssione
da m
Ġrecu pera
Ġint elle
ĠPre sidenza
Ġ198 9
Ġpresenta ta
Ġri lievo
cca de
ĠInf ine
ĠA merica
ĠTor na
Ġconqu is
tro duzione
ĠY o
is simo
Ġinter net
Ġsor ri
vol mente
Ġcomp ro
Ġspeci fici
ĠP orto
Ġorgani zzato
Ġdialo go
Ġsolida rietÃł
Ġal ti
con s
Ġsostitu ito
is titu
Ġ8 0
c tor
ar la
lan za
Ġan g
Ġpo le
in ti
N ella
t ch
Ġese cu
des tra
Ġven ire
Ġguar da
fica ti
Ġarg omenti
Ġrisp oste
Ġfon te
Ġfa ccio
Ġcomp osta
ĠTri b
Ġmessa ggi
lan ti
Ġb os
Ġmiglia ia
Ġeurope e
ĠU fficiale
pri le
ĠPi ano
Ġulterio re
Ġmeri di
ĠL et
Ġele mento
Ġ3 00
Ġdichia razioni
Ġespre ssa
com o
Ġderi va
Ġoccid entale
ĠO ggetto
Ġins erito
Ġdebb a
V ER
Ġlavora tore
Ġin tito
Ġmina ccia
Ġse coli
Ġma te
x i
on y
Ġsos tanza
Ġlo gica
Ġpuo i
Ġmoni to
Ġprop or
P A
Ġfaci lmente
Ġsenti to
Ġpri vile
ĠDE I
ĠA li
ĠP oste
Ġvelo ce
ĠP ie
Ġin c
ĠPal ermo
ero p
en ergia
Ġm ura
Ġf le
Ġter mina
Ġta ri
Ġdu ra
g omento
ĠS E
Ġtras formazione
Ġuni ca
ve dÙī
Ġacc usa
Ġaltre ttan
Ġvol to
Ġau menta
ina mento
Ġv uol
ĠP I
ĠP O
sc in
Ġposi tivo
Ġmiglio rare
is tico
Ġprovin ce
Ġprepa razione
Ġmedi cina
Ġfami liari
Ġfinanzia rio
Ġdefini tiva
ĠSo tto
Ġri a
Ġri pa
Ġpur troppo
Ġann uale
7 8
Ġris to
Ġgio care
Ġe mi
Ġminis tero
Ġsele zione
ĠR A
Ġfis cale
Ġfami liare
ĠC osa
a tte
un ni
Ġconqu ista
aper tura
lie vi
m esse
g et
ĠSu per
ĠR E
Ġcolle ghi
Ġintegra zione
ar ta
Ġriuni one
Ġfra telli
Ġverifica re
Ġsca la
Ġsp osa
Ġsinda cali
Ġsor pre
zi oso
endo si
Ġcen tina
tu s
Ġe cco
Ġpro ssima
d al
ĠMa ssimo
ĠF estival
t ele
Ġgioca tori
ĠCla u
ria mente
Ġban che
1 00
zia mento
gh erita
ĠCon f
199 9
Ġo cca
Ġconso li
Ġdisp one
Ġsol dati
Ġsupera re
de gna
Ġcanz oni
Ġapp o
or ge
Ġo ccup
Ġdiffer enti
ĠP ur
Ġca ttura
Ġs ve
Âłk m
Ġle gno
ĠSoci etÃł
U O
ĠE li
Ġprincip almente
w i
Ġgaran zia
C IA
Ġl ink
ĠMessa ggi
t z
Ġde bu
Ġdep utati
Ġedi fici
ĠNo i
ĠC ina
is truzione
mb olo
ĠJ e
D e
Ġ201 6
d in
o li
Ġman ca
Ġstori e
ĠF I
Ġrip arti
Ġusci re
bo le
Ġven to
Ġ3 4
Ġma tura
Ġindustri ali
ĠB anca
Ġvo lo
ĠP A
Ġutili zzando
Ġchi usura
Ġg es
Ġvanta ggio
Ġrin uncia
res enta
gli are
Ġa tt
T RO
Ġpa esa
Ġpercor si
Ġp onte
ĠAn na
ĠPa s
IN A
ĠA M
D E
vo cato
Ġbo cca
lib ero
f r
U na
m arsi
Ġface va
bini eri
o la
Ġe st
Ġpa ssione
Ġpa sse
xx xx
Ġutili zzati
Ġdisp osto
stru tture
ER I
ĠN ess
Ġri cche
Ġir ri
Ġin e
ttu ali
cu r
Ġan da
Ġcompre so
Ġstori ci
v ra
qui sizione
ĠMinis tri
Ġconsi ste
Ġi mb
ĠPar co
di bile
Ġri pe
Ġcast ello
ĠCon te
Ġs tri
Ġri mb
Ġm ul
ĠS y
Ġca s
ge gn
Ġco opera
en ce
ĠLe i
Ġriguard anti
Ġk e
ena ro
m ette
Ġconsu mo
Ġpomeri ggio
s lazione
Ġvuo i
h er
Ġpun ta
D a
Ġris chia
k y
ombar dia
ĠM useo
ĠIn forma
ĠP os
tolo gia
al li
Ġcapi tolo
on de
Ġpa gare
or mente
an ce
ĠPa pa
Ġindisp ensa
ĠS cri
Ã Ń
Ġb lu
5 00
Ġcontro lli
. :
EN ZA
i i
Ġpar lato
Ġte so
ggia ta
Ġantici pa
Ġin de
Ġsp alle
ĠNel le
Ġess er
ĠâĢ ¦
u e
ch ino
Ġ 00
ve va
Ġrisol vere
Ġre cante
Ġfigu re
ipo tesi
Ġri com
Ġvo ci
âĢ¦âĢ¦ âĢ¦âĢ¦
Ġaltri menti
d ando
ĠUni versi
m y
v enza
IC O
ĠAuto re
9 3
ĠGu ar
ĠMa ri
Ġri durre
8 4
di e
Ġconos cenze
ll er
Ġdo ppia
do c
Ġprotagon isti
ĠEn rico
ru r
Ġ y
Ġprodu rre
Ġogn uno
Ġre gno
Ġca mbi
Ġcom posizione
ĠF il
Z Z
ĠTe c
Ġin telli
gi l
Ġi ra
Ġrela tivamente
Ġcol tiva
Ġsca denza
zi ano
Ġve do
Ġmalatti e
l ing
en dum
an chi
Ġgioca tore
Ġmeto di
Ġso gno
ĠAng el
Ġdeter min
Ġv ostra
ĠP AR
au gu
Ġpe zzi
ĠS inda
Ġaff ari
ĠU sa
Ġna scon
Ġsera ta
Ġcom missa
ber g
tali tÃł
lan da
ĠNo ve
P I
Ġacc anto
Ġde posi
Ġgia rd
Ġorg anismi
m almente
Ġp an
Ġindivi d
Ġfru tto
Ġterrori smo
Ġpubblica ta
Ġcompet enti
Ġfa tte
ĠU l
Ġameric ana
Ġca use
Ġraffor za
Ġprospetti va
Ġaggiun gere
Ġcompa ti
Ġne ppure
bili ta
Ã ³
Ġper segui
ĠRegistra to
Ġb ordo
appro vazione
Ġprof essore
Ġin du
CH E
Ġpres u
ĠM I
tto bre
ĠDa vid
Ġg er
el enco
gra do
en tro
Ġsos tanze
Ġos sia
Ġespri me
Ġcom mento
Ġelettr onica
teria le
Ġre centi
ar tico
Ġespri mere
Ġmet ter
Ġsotto scri
Ġdocu menta
inte grazione
Ġmoder na
Ġpre ssione
edi zione
Ġv escovo
Ġ4 00
Ġprog ettazione
ĠA b
ĠF A
Ġra dica
Ġvi va
Ġini ziale
Ġvio lazione
u la
Ġmede sima
Ġvolon taria
D al
Ġde cora
Ġpercen tuale
Ġsconfi tta
Ġcambia mento
ĠDire ttore
i mm
Ġfi anco
Ġide a
Ġdeci sioni
Ġsempli ci
Ġcom menti
on tana
Ġca mera
Ġval utare
Ġesist enti
is tituzione
r ino
qu ali
Ġper dita
Ġminis tri
Ġesp on
Ġvi gente
IN O
se gretario
Ġci Ã²
Ġquarti ere
Ġforte mente
Ġstata le
Ġm essi
ĠF ri
Ġindividu are
Ġmanifesta zioni
cia l
Ġpiane ta
Ġp p
c que
Ġconsidera re
ĠGia ppone
ĠNuo va
Ġb ando
Ġcondi vi
Ġepiso di
Ġ201 7
li ano
Ġcan tante
Ġimp osta
Ġal ter
ĠV alle
Ġindividu ale
on ardo
Ġcer cando
Ġsca mbio
Ġsfi da
Ġmecc ani
Ġdi gni
ĠCom p
Ġterritori ali
Ġf um
cole dÙī
Ġde ca
Ġsembra no
Ġlabora torio
d ar
Ġconfer enza
ano ra
Ġdipen dente
-- -
ai uto
Ġscoper ta
Ġse mina
teri ormente
Ġsche ma
ĠQu este
Ġass enza
Ġstu dente
il le
Ġapp assi
occupa zione
Ġfran cesi
ĠP rin
Ġmodifica to
Ġcele b
te dÙī
ne y
archi vio
Ġmedi ci
Ġc usto
Ġlunghe zza
ĠV isto
6 5
Ġdo tto
Ġparla mentare
ra ele
c ultura
Ġre spi
ĠPi Ã¹
ĠE sp
Ġst elle
ĠPia zza
s en
Ġro ck
Ġu mi
b li
Ġritor na
Ġna ve
Ġinflu enza
ĠA bbiamo
Ġten uta
res cia
m essi
un ci
Ġraccon to
Ġrisolu zione
ĠBus h
Ġcol pa
an dica
ti zia
Ġrispon de
ce o
Ġchi ese
Ġon eri
r ti
Ġabi tu
Ġa mpio
oni ci
Ġtrasp ar
Ġpazi enti
U L
ĠG ol
ĠLa voro
ĠS C
Ġcolle gamento
ĠAl lora
Ġri du
in no
ĠEn ti
u do
ĠW a
Ġan cor
ĠAl berto
tre tti
Ġre ci
S E
Ġaffin chÃ©
ĠC D
Ġdesid erio
Ġderiv anti
Ġcomp li
Ġdi visione
ĠD alla
enda rio
Ġb er
Ġcer te
Ġper se
Ġmetro poli
Ġti ro
w e
Ġindi etro
g ri
Au toritÃł
8 1
Ġgu ard
Ġbra ni
Ġindi care
Ġage vo
Ġpre li
T u
Ġf este
tt ino
impor tanza
Ġp uni
Ġnar ra
pa g
Ġpi o
ĠE gli
Ġcomple to
Ġchi uso
Ġattu ali
6 7
Ġe sti
and ante
I mp
o pposizione
do ws
Ġfaci li
Ġcen trali
Ġinter venire
ĠMa d
Ġcap ol
Ġcon dotta
Ġcostitu ita
% .
or zio
ang elo
Ġcli enti
Ġan data
impi ego
ĠUni te
Ġnatura lmente
Ġdi so
Ġpoesi a
Ġcostrui to
e ventu
s inistra
Ġdi cono
posi zioni
Ġc lini
Ġp ort
Ġfa si
Ġcons enso
gior no
ĠD ia
Ġle gati
us cita
gi udi
ĠM is
impi anto
et t
Ġcom bina
opp ort
Ġ- -
Ġa pre
ado zione
tan ia
d om
8 3
Ġsen sa
Ġ0 3
eri re
ĠT U
Ġpre f
Ġrima sto
s chi
Ġqu egli
land ese
ĠL ombardia
Ġrila scio
Ġconsidera ta
Ġoffer te
Ġd enaro
ci to
archi te
ĠDEL L
Ġchil ometri
si on
Ġtele visione
s tre
Ġs guardo
si ste
Ġlimi ta
Ġpersonali tÃł
ĠTi tolo
st ina
Ġpre te
Ġatti vo
Ġvin cere
Ġel en
ese cuzione
ĠRu ssia
Ġdi tta
S u
G i
ĠB os
Ġdigi tale
Ġcu cina
Ġpa io
gi ana
ĠRisp osta
or di
Ġsola mente
ĠCa ro
ĠW al
Ġelettri ca
P i
Ġscom par
Å ĵ
Ġlegi slazione
c lo
Ġoff rire
ĠDa te
y n
Ġcontra sto
Ġglo bale
Ġcan ale
Ġsitu ata
Ġdiparti mento
R AN
ĠPre mio
oni che
Ġvilla ggio
Ġl Ã¢
Ġfinanzia ri
Ġapparten enti
Ġav viso
an esi
Ġimpossi bile
Ġ ),
glia ta
Ġso cc
Ġc anti
Ġcar d
Ġb us
Ġgen eri
9 1
Ġresi stenza
Ġcompon ente
Ġistru zione
Ġp elli
M o
Ġpreve dere
Ġsingo le
Ġra gi
Ġto ur
Ġidenti tÃł
Ġca ro
Ġti ene
ĠFa coltÃł
Ġri for
er ri
Ġeffetti vamente
ĠRegola mento
Ġeventu almente
ver Ãł
c era
Ġmiglio ramento
Ġcomunica zioni
Ġa cu
Ġcapi tali
asp etto
Ġna ta
w er
MEN TO
ta lmente
ĠSan t
ĠU r
Ġ4 7
r Ã²
Ġdol ce
Ġve ge
au toritÃł
ten e
uti le
Ġassum ere
orig ine
Ġriconosci uto
ĠM in
O O
ru denza
Ġd ando
entra ta
Ġfonda ta
ĠCer to
Ġdelib erazione
guar dia
Ġfatto ri
acqu isto
Ġin er
Ġscoper to
A LI
Ġmon u
Ġagg re
Ġdi vi
Ġsp et
Ġstrate gia
Ġpi etra
Ġfarma ci
en s
en d
Ġtuo i
Ġusci ta
ĠT I
Ġracc omanda
Ġriusci to
logi co
Ġdele ga
cer do
Ġucci so
g os
Ġpen sione
ĠA ss
esso ri
Ġini zialmente
Ġven erdÙī
Ġfinanzia rie
Ġdestina ti
ĠF ondo
ĠC lub
Ġdisc re
gli one
tr Ã²
Ġcon vi
Ġinda gini
Ġfio ri
ĠS ha
Ġass un
Ġle gato
Ù Ĭ
U livo
versa le
Ġcostitu iscono
Ġcin qu
ĠDire zione
ĠLa zio
Ġpubbli citÃł
assi stenza
âĤ¬âĢ Į
ĠI raq
ĠMich ele
Ġstan za
Ġimp rov
v ar
Ġau gu
Ġdiventa to
Ġrappresenta to
Ġtradi zionali
l un
uni versitÃł
Ġcompren dere
Ġme da
Ġpen sato
Ġcor to
Ġsi mbolo
Ġsos tiene
F i
Ġresid enza
' '.
Ġlar ga
Ġrefer endum
Ġsani taria
p t
sti zia
Ġba ssa
ĠSar degna
tra tto
Ġfron ti
gen to
i tali
Ġcompre si
Ġcia o
Ġcre de
i ci
ĠD O
Ġgra tu
Ġe mana
Ġri struttura
ĠL oren
Ġsti amo
Ġser ia
ĠS ol
Ġe bre
Ġra sse
Ġgiu ris
Ġestre mamente
Ġripre sa
Ġrappresen tanza
tan e
b ol
ĠD es
Ġ4 6
Ġin augu
Ġcon iu
Ġapp ren
Ġfam oso
Ġan dato
ĠNe gli
Ġimmi grati
Ġacce dere
Ġatto ri
ĠR OM
Ġal unni
Ġ3 9
ĠMar c
Ġ198 5
D is
e vento
chia mo
Ġguar dare
Ġp alla
Ġpra tiche
ĠMa uri
Ġsvilupp are
Ġinse dia
Ġta bella
Ġsani tario
Ġassi sti
edi ficio
Ġscola stica
essa to
f ran
Ġdimostra to
ĠPoste d
ĠC ana
ĠCh ar
Ġdi vie
Ġpi anta
ĠS to
ĠA s
ĠC ultura
ĠWil lia
Ġapp unta
as h
ffici enti
Ġatti va
ĠQu anto
Ġfrequ enza
b el
... )
Ġon line
ĠA m
Ġde c
Ġi sola
Ġau tenti
au ton
?? ??
el et
Ġf res
ĠS ulla
Ġquotidi ano
Ġeffettu ata
cip lina
Ġp orti
Ġrivol ta
den nitÃł
el d
Ġmo tori
Ġ198 6
inse gnamento
Ġtrasp orti
ĠF la
A pp
ĠP ra
ĠSci enze
ĠPa dova
Ġ onore
Ar t
k et
Ġcanc ella
Ġconcor renza
ĠS iamo
Ġaggiun ge
o ggi
mo ra
Ġcellu le
ĠI stitu
Ġvole va
Ġv ene
Ġvoglia mo
ĠCom unque
Ġ15 0
Ġeffettu ato
Ġmo le
Ġinseri re
ha m
Ġcir colare
Ġt v
arri vo
Ġba tte
Ġchi unque
ĠP M
S o
Ġass ume
Ġ ran
Ġfer ma
do ri
Ġconsegu ente
A ssemblea
esi genza
Ġosserva zioni
Ġlin gue
? "
ĠS toria
Ġ201 8
ĠL an
Ġpro cura
Ġdeci se
Ã ¶
Ġre ga
M E
ĠH i
Ġconserva zione
com une
Ġp orte
Ġscritto re
ccade mia
osa mente
Ġpoten ziali
Ġpron to
Ġav versa
istitu to
Ġgen erazione
autori zzazione
Ġese cuzione
Ġrego lare
are se
ĠEmi lia
Ġsottoline a
Ġistitu zionali
Ġa bili
Ġma estro
ĠC orso
ut ente
< /
d ina
Ġsi mpa
op inione
Ġprovve de
Ġpopo li
ĠM O
Ġre sa
Ġlin gu
ing ton
Ġf oresta
Ġco raggio
Ġutili zzo
C OR
Ġdefini tivamente
per to
Ġstabili re
Ġu mane
ĠCor po
st enti
B a
Ġl unedÙī
Ġpi ante
Ġpe zzo
Ġe vento
f in
Ġeserci zio
Ġdis tur
Ġpsi co
mbi ente
Ġter zi
Ġse mb
Ġet c
ĠS in
Ġar che
ĠVene to
ĠMi cro
Ġpo veri
indi ri
grafi e
ri sti
vi du
inter pre
Ġsf u
Ġta sso
cu s
Ġe vol
H o
Ġcirco lazione
Ġcompre sa
Ġsoprav vi
der lo
li smo
ĠSal va
ger si
bi ti
Ġcos tretto
k s
ri ma
Ġre cord
Ġacc essi
Ġai utare
Ġnucle o
Ġsche da
ĠPro gramma
6 2
b or
Ġreali zzata
Ġmo bilitÃł
Ġatti vita
ten sione
ĠNon ostante
Ġrappresenta no
ci uto
g ando
Ġre da
Ġassolu ta
Ġad er
Ġpa ga
Ġin na
P E
on gono
ĠA ssocia
Ġscri ttura
7 2
Ġauton oma
ĠMich a
Ġmer cati
Ġsi ete
Ġven di
C o
S a
ĠMar gherita
Ġanzi ani
Ġlu ci
Ġass unto
Ġbene fi
r do
Ġpro sp
zion almente
Ġid ro
r gi
Ġacco gli
eff etto
c one
ri cato
sta te
Ġpar ziale
Ġcomporta menti
clu sione
Ġdi sta
is se
Ġmaggior mente
ul t
ĠI ni
Ġst ella
Ġcontin uo
Ġ198 7
Ġca tte
Ġde bole
ter anno
Ġassolu to
pp iamo
Ġcar te
tu a
ss erva
Ġar te
ĠTo ur
ĠB on
ĠP la
in troduzione
ĠP on
ĠServi zi
Ġdestina to
Ġro mana
Ġd in
ta gna
Ġecc essi
Ġsp len
ĠParti to
P o
tti ca
Ġcar cere
Ġregistra zione
a gi
Ġm uta
Ġscon tro
Ġgiornali sta
mo zione
Ġtedes ca
Ġrima se
Ġapri re
Ġentra mbe
Ġcorrispon dente
Ġdeci dere
ĠB ur
==== ====
ĠAl tri
an z
Ġpara ll
Ġro mano
Ġmusi cali
Ġavven uto
Ġconsenti to
Ġpri vate
Ġp orre
Ġm ana
de si
Ġturi smo
is crizione
aa aa
Ġpes ante
Ġer rori
Ġp ista
Ġconf ine
Ġconten ute
Ġorgani zzata
Ġpa ci
Ġfar Ãł
Ġresid enti
Ġoffer ta
Ġcivi ltÃł
sta zione
Ġsin tesi
Ġdov uta
U E
Ġuffi cio
ziona ta
s tante
u tica
ppo si
CH I
Ġriguar dano
Ġcom itato
Ġcol p
Ġi sla
Ġpratica mente
ar gomento
a ssa
Ġcol onna
Ġcatto lica
ĠF OR
Ġappli cano
Ġsa cerdo
Ġregistra to
ĠT om
Ġmera vi
ET TO
Ġindividu ali
ĠO s
Ġulti ma
Ġfa i
si ca
Ġno tare
Ġmonta gna
so ft
ĠRi cor
Ġtras for
r le
ma le
s y
Ġag enti
Ġvol er
w ork
Ġrice vere
Ġ198 0
Ġstraordina rio
ĠPa ra
do re
ĠVin cen
TA LI
Ġ ....
Ġsospen sione
ro so
Ġfen omeni
Ġs fo
ĠSe zione
Ġauton omia
Ġve cchi
ĠAlc uni
Ġmacch ine
Ġcir c
ĠR os
la s
Ġambi enti
ĠNa tura
S ono
ri sto
Ġrile va
Ġtelevisi va
ter ali
ĠK o
Ġaffer mato
Ġgiuri dica
Ġpre ca
r mente
s tu
Ġmodu lo
6 4
Ġfeli ce
vizz era
al ta
Ġurb anis
Ġri cco
G G
Ġsa ra
Ġquotidi ana
Ġarri vato
7 1
P re
Ġri ven
7 4
Ġinter ni
Ġ4 8
vi to
Ġveni vano
ĠB asi
Ġre visione
tt ente
ĠW orld
. -
Ġsore lla
Ġopera tivo
Ġprece denza
Ġpubblica zioni
Ġruo li
Ġinfra strutture
ui re
ĠLe a
gen o
cia to
Ġricerca tori
ro m
d osso
Ġospe dali
ssa zione
Ġ âĤ¬
Ġbi gli
Ġgesti re
sp eci
Ġconf ini
Ġcittad inanza
Ġfisi co
A d
ĠTrib unale
Ġin ti
Ġf ri
e voluzione
199 8
ĠOr gani
Ġbelle zza
i tÃł
Ġchia ramente
indiri zzo
cci ano
Ġpia tta
Ġf rui
Ġvi vono
Ġp anora
Ġmaschi le
ĠS ette
Ġsa per
Ġdiffer enze
s tero
Ġavvi cina
Ġins omma
Ġpa s
Ġgio cato
Ġindica te
ĠR EG
men do
Ġutili zzata
Ġes ce
eventu ale
Ġre ato
ĠV edi
Ġ za
c ritto
che stra
sta mpa
Ġori entale
Ġsegn ale
ĠIs raele
ĠJa ck
Ġpos te
cip ro
Ġuni versitÃł
ziona mento
ĠN EL
Ġ onda
Ġistitu zionale
P S
Ġcentina ia
Ġda te
Ġdov ere
Ġd anne
Ġten endo
ar s
Ġpers ino
olo gici
Ġada tta
Ġcre dere
Ġaper tura
7 9
ĠDe creto
b elli
ĠC ali
Ġpopo lari
di er
gra fici
Ġpart ner
ĠL I
ere mo
Ġintera mente
Ġa mmi
Ġpes ce
Ġriten uto
fon do
um ero
ĠCOM UN
Ġin centi
Ġli e
ti mento
der ale
n u
ĠD ra
ON O
Ġdi ci
Ġc anto
Ġtu tt
ĠH u
Ġvin ce
ra eli
ĠP orta
ĠAle x
r t
p rin
Ġmanu tenzione
Ġpre giudi
ĠM el
Ġimp orta
ĠS TA
Ġanti chi
Ġpresta zione
Ġri c
ti o
Ġfle ssi
Ġrip ortato
D u
ccessi vamente
Ġvir tÃ¹
7 3
C i
Ġgi unta
ĠS tan
Ġdecre ti
Ġtrib unale
in sieme
ĠCon venzione
ti po
Ġfu ga
chi esta
Ġobbli ghi
Ġrifer isce
mo bili
Ġne mico
Ġprodu ce
ĠNi cola
Ġpa la
Ġ& #
ziona re
Ġg usto
Z ZA
Ġal ber
Ġre cipro
% ,
Ġparla mentari
Ġer rore
Ġaggiorna mento
Ġriman ere
Ġtedes chi
Ġqua ran
zia to
auton omia
Ġpri va
A ss
d ino
Ġtempera tura
Ġcoin ci
ĠAr chi
Ġuniversi tario
esi to
ĠR osa
Ġsegre to
in ess
Ġ yo
Ġatta cco
Ġdom inio
Ġacc re
Ġ197 8
Ġri m
du ci
Ġval le
b lo
Ġpri gioni
Ġricos truzione
Ġtranqu il
v ino
Ġp etro
Ġcir con
st ono
ĠPar te
ĠK e
ĠCala bria
Ġde vi
Ġz u
Ġchi tar
Ġci bo
d r
ine a
ĠQu est
Ġ4 2
ro sa
it h
Ġdisa bili
vin cia
Ġvigi lanza
Ġca duta
6 9
ins erimento
Ġesp lici
Ġre dazione
Ġannuncia to
mina li
Ġdi cendo
Ġcon venzione
Ġg hia
e ducazione
ĠI S
at h
col ta
Ġs ente
Ġsi gnor
mos fera
Ġgior nale
Ġdiff usa
Ġu sc
ziona ti
Ġra ffi
Ġri gi
t tra
Ġf eri
Ġespre ssione
Ġmusi ci
Ġp ul
Ġpresenta no
b all
Ġasse gnato
omb ra
ĠCom unale
Ġinteressa to
Ġgiornali sti
ĠG ri
ed endo
Ġquad ri
ĠC AR
ten tri
c ella
ĠDEL LE
Ġequi pa
ri ta
Ġvia ggi
Ġdiffer enzia
Ġlasci ando
Ġcompeti zione
ch a
ĠS Ùī
gli ano
Ġvi de
Ġtra cce
Ġcar b
ET TI
Ġfini to
Ġbu oni
Ġarg omento
b r
is e
ĠâĢ Ŀ
ĠJ am
Ġpresu pp
ĠInterna zionale
Ġdi scri
ĠA ra
ĠGe orge
inf anzia
l lazione
Ġmon te
Ġriconos cere
on ne
Ġsin gola
ĠPa dre
Ġadotta re
v ente
Ġper fe
inca rico
Ġco ra
Ġricor dato
Ġau mentare
ĠIns omma
D S
R o
Ġamministra tive
etti vo
Ġcomba ttere
du e
Ġfra se
Ġazienda le
Ġconvin to
Ġpara metri
ĠC in
Ġpre ssi
Ġan a
ĠPa ul
an tica
Ġsetti man
Ġp m
Ġinteress anti
ĠPa tri
Ġvi cina
ten ze
ĠH er
Ġautori zzazione
Ġstraordina ria
c ero
esti one
opport unitÃł
Ġsco prire
Ġadotta to
C ome
Ġg enti
Ġord ini
Ġse zioni
Ġfinanzia menti
Ġan tica
Ġsta dio
Ġraggiun ge
ti amo
ĠVi ttorio
Ġvei coli
Ġprepa ra
ĠO pera
Ġconsapevole zza
Ġscri tti
ĠF ondazione
Ġpunte ggio
Ġmar cia
In ter
ON ALE
zz ar
Ġsan zioni
ĠF ino
ĠWin dows
res to
Ġvi genti
Ġsal ve
na ta
Ġdestina zione
Ġcos trin
ĠF ar
ona te
Ġfi li
Ġn om
Ġb om
is tiche
?? ?
Ġcon vegno
Ġpen ali
Ġsvol te
Ġper mettere
R a
l or
ren i
ona rio
Ġreali zzati
ĠSe mpre
Ġinse gna
Ġco i
ĠMa tte
Ġgener almente
ĠMicha el
Ġc essa
Ġrivol uzione
Ġriti ro
Ġav enti
ĠSa la
ĠMon do
Ġdio cesi
Ġesa ttamente
mer cio
Ġtal volta
Ġattra versa
Ġcom o
Ġin fer
Ġ198 4
ero ga
Ġri di
Ġi vi
imp orto
Ġvolon tari
i ti
Ġan tico
ĠP RE
zz ini
ĠSp ort
Ġlegg er
m ona
ĠP hi
................ ................
Ġsci enze
Ġtelef ono
Ġmo rire
je ct
cca ti
Ġglo bali
Ġ198 3
! "
Ġgro sso
Ġade gu
Ġcal colo
Ġten denza
Ġs cia
ni ci
es terno
si s
o ff
ĠL U
ĠH ol
Ġc ra
ĠO v
e mi
Ġcal do
pa ge
v ani
Ġfun zionale
Ġri ass
Ġpo ver
Ġcontinui tÃł
Ġsub ordina
Ġstabili sce
Ġconse gna
Ġc ani
Ġprof essione
inte sa
b ro
ĠC OR
Ġade mpi
Ġpresenta ti
tiche tta
Ġ198 2
gi tto
Ġins u
Ä ģ
le sc
for te
an y
ul ta
Ġinn anzi
es pressione
Ġa zzur
Ġecce zione
ĠGio chi
t trice
Ġfino ra
ĠMar ina
Ġst rin
Ġcomun ali
Ġ4 1
n is
Ġpreval entemente
ĠPi er
Ġsin te
Ġvicen de
cca ta
ĠNa zioni
Ġ198 1
alle gato
Ġapplica zioni
Ġcamm ino
Ġritar do
cci dente
Ġ ono
Ġul teriormente
g ran
6 1
rd ine
a bi
Ġcom batti
go lare
Ġsuo lo
v ina
ha i
B A
Ġusci to
Ġconte a
ĠH anno
f u
Ġpers on
Ġregi stro
Ġotti ene
Ġsperi mentazione
Ġs anno
a ffi
Ġ7 5
Ġfin estra
Qu esta
Ġopera re
Ġchia ra
rgi lio
lo so
Ġquali ta
s ante
ĠPubbli ca
ĠAn ton
Ġbu ono
Ġi t
Ġprof ondo
l s
Ġpo tente
Ġavven uta
ĠS iste
ĠSo le
Ġo d
Ġinsta lla
Ġproprie tario
Ġcomplessi va
Ġviss uto
Ġsen to
Ġvalori zzazione
Ġsta tali
Ġdiff uso
ĠRi cerca
Ġla go
ĠT V
Ġorig ini
m etro
Ġalterna tiva
Ġdigni tÃł
Ġreali zza
ĠRi ch
ĠNa tale
ĠDe mocra
ter raneo
Ġsta tuto
Ġm useo
Ġos ser
arti sta
do l
Ġta volo
Ġpilo ta
o t
Ġri cca
con a
6 3
Ġfa tica
Ġimpre sa
Ġgiuri dico
Ġabi ta
ĠA ssi
Ġgra di
ĠMar che
Ġacc ettare
Ġsani tÃł
ĠP eter
Ġclassi co
Ġdivie to
ĠâĢ Ķ
Ġgradua toria
ĠD om
Ġin fini
ĠAr ti
is ca
Ġa mma
Ġse bbene
Ġcorre tta
Ġstrani ero
k u
Ġproblema tiche
T TA
Ġess enziale
Ġin cen
Ġfer mo
ĠLoren zo
ĠClau dio
Ġalle gato
con ten
Ġconclu de
Ġraga zze
Ġ4 4
m ino
ĠPro getto
Ġser ver
st ino
Ġris al
pu tato
G E
Ġh andica
Ġindiri zzi
ĠT ali
go ri
ĠV arese
j i
Ġcon g
Ġb ro
Â «
Ġvis uali
Ġsplen di
atta cco
Ġconclu so
ĠPie monte
Ġgiappone se
Ġconten ente
Ġla tino
Ġraffi gu
Ġle zioni
Ġmonito raggio
Ġdi ss
Ġin so
Ġener ge
ti c
Ġsecon di
inda gine
Ġaff atto
Ġd ona
Ġpre ghi
Ġg all
Ġtito lari
Ġm orta
Ġcaval lo
Ġdeci samente
Ġma mma
Ġprodu ttori
ĠA S
Ġad ulti
U M
identi tÃł
ĠRa pp
logi ca
Ġide ale
orre i
ĠP ost
ĠRo bert
Ġpazi ente
Ġman cata
ĠBa ri
ĠBer n
an ese
Ġre azione
ĠMe dio
Ġte am
Ù Ħ
ga mo
Ġsa i
Ġcristi ana
Ġsel va
Ġre ce
Ġocca sioni
elle s
Ġtema tiche
Ġprov viso
ell ini
Ġs esso
Ġcomuni care
i mmi
j sp
Ġ5 5
Ġco pie
Ġasp i
ĠCa p
Ġre sti
Ġbene fici
Ġmeridi onale
ĠFili ppo
Ġfon dato
Ġcos tu
ĠA us
Ġdipen de
Ġnu tri
Ġcaratteri zzata
Ġconsi gliere
Ġfabb rica
Ġsotto segretario
Ġdescri zione
sp rudenza
Ġpresenta te
P R
ĠSer gio
Ġcer cato
ru zione
Ġcapol uogo
Ġele vato
Ġcolpi to
d ge
Ġcri tiche
Ġsensi bili
Ġira ch
Ġordina rio
Ġimprendi tori
Ġri ve
Ġsco pre
Ġcen tra
Ġmecc anismo
ES T
ĠIn di
Ġprinci pe
Ġdistin gu
ĠLo cali
Ġatle ti
Ġris contra
Ġdo dici
ĠMa c
Ġ ĉ
Ġauto matica
Ġindispensa bile
Ġsostitu zione
Ġmis teri
ĠP isa
Ġcontro llare
ĠP C
Ġmol ta
Ġdetermina re
Ġcredi ti
A ll
Ġbi anca
Ġen orme
; &#
ĠS A
Ġper de
Ġfini re
bliote che
Ġin cor
Ġprio ritÃł
Ġapp rezza
ell ino
fica zioni
Ġver sioni
Ġver ti
Ġtri ste
Ġto talmente
Ġ4 3
ĠA na
Ġpopo lazioni
ĠCon tro
ĠIn tanto
Ġconfer mato
Ġparro cchia
uo va
Ġblo g
Ġlavo rato
one s
ĠBr uno
Ġrichie dere
Ġimpe gni
F OR
la voro
Ġbattu to
V OR
Ġreligi osa
ĠCes are
Ġdes tino
Ġstre tto
Ġimp u
Ġl um
sti a
Ġdo tato
Ġdi ale
Ġcapi tano
Ġrappresenta re
ĠC li
man n
Ġatta cchi
Ġcomuni cato
Ġd omici
Ġb ron
Ġripre se
pp ie
Ġn era
ĠE u
Ġsvilupp ato
Ġconsidera zioni
Ġuffi cialmente
ĠH en
Ġpre mia
ine si
ĠCha mpi
i te
re ssione
Ġqu into
o ggetto
ĠN A
Ġproc la
Ġpro vare
ĠG U
ria mo
uo ri
erop orto
speci e
Ġcap elli
der anno
Ġs tili
ĠFed erico
ho p
Ġdiso ccupa
Ġapp ello
Ġspie gato
Ġli cen
Ġten de
Ġle gata
ĠAn cora
Ġbiso gni
Ġcostitu ire
R oma
vo ri
Ġricos trui
Ġres tando
pri ma
ĠU mb
ss ino
fi cando
ĠC E
Ġdimostra re
Ġes terno
Ġspagno lo
Ġstrada le
Ġsostitu ire
Ġfra m
Ġmus ul
ĠS tar
Ġse pol
au mento
Ġelet tro
Ġla tte
ass essore
ĠSa ra
Ġaltrettan to
ĠMad onna
Ġcom andante
indi vidu
Ġten sione
Ġin venta
ĠFor za
Ġess enziali
Ġfra zione
ĠLea gue
Ġve di
Ġre cen
Ġrilev ante
!!!! !!!!
Ġbi lan
Ġdise gni
Ġinizi Ã²
Ġco da
gg er
m Ã²
Ġosserva re
tato re
ch o
Ġn er
Ġpres enze
ĠBra sile
c m
F I
Â°Â° Â°Â°
ĠS enza
j o
ĠO re
cu sa
Ġver bale
sta no
ĠQu ello
ĠTren to
unica zioni
Ġmini ma
d da
Ġsom me
Ġfu ggi
Ġrecente mente
Ġlun ghi
Ġcambia menti
C N
ĠI r
arti cle
ĠM il
ro la
G RA
Ġconfor mitÃł
Ġma glia
Ġau spi
Ġris er
e tica
Ġpote sse
Ġconsidera ti
re te
Ġsci enzia
Ġsosten uto
ci r
Ġperfetta mente
Ġu su
Ġbu one
Ġb anda
Ġeffettu ate
En te
Ġmodifica re
ĠA mministra
Ġin cer
Ġpassa ti
Ġimma gine
an sione
Ġcomin ci
Ġav val
Ġpote vano
ĠGa bri
Ġdele gato
mi ta
wa y
Ġcorre tto
es tri
Ġspe cialmente
Ġgio ia
Ġcon dotto
ĠA ff
co re
Ġvari etÃł
Ġese mpi
Ġscu sa
Ġcittad ina
Ġgra fica
Ġba sato
Ġtro viamo
Ġi sole
Ġsfor zo
Ġforn isce
Ġ6 5
Ġle gate
ĠFed erazione
Ġapparten ente
Ġchi rur
Ġblo cco
Ġvuo to
Ġe bra
Ġes terna
Ġti f
ĠT RA
bi l
Ġsigno ra
U TO
Ġali mentare
ĠK i
ĠVer ona
Ġpar che
Ġcresc ere
um u
ar ca
ssi co
zia re
Ġarti gi
ĠBi blioteca
ĠD omeni
res te
con omi
Ġdiscip line
Ġentra te
mu la
um anitÃł
ĠA mministrazione
Ġra zzi
Ġgiu dica
Ġprofession isti
Ġintegra to
ss on
m inistra
Ġleg ali
ĠJam es
Ġin vita
Ġcerti ficazione
ĠMe dia
Ġdice va
ut h
Ġc eri
ĠA c
Ġcristi ani
oo oo
Ġinterpre ta
Ġclassi ca
Ġsostan zialmente
Ġgiudi ci
ĠM are
Ġgre co
Ġs bar
Ġprima vera
n y
Ġa ria
Ġcal endario
Ġcentro sinistra
Ġre gia
p et
F A
Ġprovin ciali
Ġri viste
Ġli ste
Ġarti stico
Ġdiscu tere
Ġfa x
Ġing lesi
lo ad
Ġdef inisce
Ġimpe gna
Ġinter o
ĠPro di
Ġgra tui
Ġespre ssi
Ġprodu ttive
ar ch
ĠGia como
ti zie
ar mi
Ġimp er
ĠVer di
g ale
Ġf la
uo vo
Ġsa ppiamo
Ġepiso dio
Q U
ĠLi ber
Ġcor pi
Ġcerti ficato
Ġfi la
Ġf inisce
gi tti
N ell
Ġnecessaria mente
Ġrice ve
Ġcontemporanea mente
po lo
Ġ201 9
ĠCre do
g ruppo
Ġris arci
Ġebre i
Ġvanta ggi
Ġma il
Ġcaratteri zzato
mina ta
Ġu cc
Ġd er
ĠR IS
Ġpre sid
c el
Ġvi cini
Ġar bi
Ġattre zza
EL LI
Ġfavo ri
Ġri dotto
Ġba ssi
an u
p ort
Ġi scritto
Ġprop orre
ade gua
Ġsu ono
ren a
ini oni
arti ene
ĠBre tagna
cia ta
Ġqu arta
Ġcul to
Ġrie mpi
ĠROM A
Ġcin ese
mba scia
Ġassocia zione
Ġsal vare
Ġso tti
Ġ5 9
Ġri sc
Ġ Ã
Ġrisul tano
Ġteso ro
ti re
Ġra di
s ch
Ġarri vo
Ġugu ale
Ġcollo ca
Ġro sa
terio ri
Ġscene ggia
Ġdire tti
Ġv ini
Ġfi d
Ġine vita
Ġchi usa
Ġmanif es
ĠF ia
Ġla ti
rig ht
Ġsess anta
Ġracco glie
vis e
e cc
n ing
Ġdire ttive
so ri
ĠSe i
ĠS S
Ġnega tivo
rin g
N a
Ġci ma
AN A
Ġgia llo
enso re
ĠCom missioni
Ġconsul tazione
Ġconver tito
T T
ĠJe an
tan ta
ĠPri mo
ver no
ele zione
Ġinteressa te
ĠEn tra
Ġscher mo
Ġfaccia mo
Ġf lo
Ġrivol to
Ġrappresenta zione
bu sti
ĠR IC
al d
Ġconcer ti
Ġindi re
ĠRom ano
Ġ ja
Ġsa telli
Ġfin anze
Ġcan e
ĠV IS
h an
ass enza
lu enza
in forma
Ġprom osso
enta mento
Ġm uro
t Ã©
Ġse gni
ĠMol ti
Ġset tentri
Ġcolle gio
Ġprio ri
Ġda tore
ĠV an
Ġs ter
al tezza
Ġamministra tivi
mes tre
Ġaffi da
om bo
ĠB lu
mis mo
ĠTu tte
Ġtestimoni anza
Ġta ppe
Ġrilev anza
Ġpa sto
Ġcambia to
ĠA I
ĠFil m
Ġ197 7
Ġvaria zioni
Ġgu erre
ĠGu erra
Ġdisp uta
tt enti
Ġori zz
Ġc l
. ).
ĠPoli zia
Ġna zi
Ġconc essi
z u
ĠPi ero
Ġon de
Ġsta gioni
Ġne mici
Ġ197 5
Ġtratta ti
ĠCar ta
Ġfir mato
ĠGi Ãł
Ġin tanto
d ese
p y
Ġbre vi
Ġspiri tuale
Ġcon sta
Ġcompi uto
Ġprose gue
Ġstudia re
Ġsupera to
s mi
ttan ta
C ON
Ġraccon ti
ĠA ssociazione
al ti
Ġreddi ti
Ġso ttra
ĠGi anni
Ġcaratteris tica
Ġsotto scritto
omo gene
ĠR en
Ġgio vedÙī
Ġcompa ra
Ġpar lando
so gna
ĠA D
Ġstu pi
Ġistitu ito
Ġindivid ui
Ġauto mobili
Ġconta tti
ttan do
ĠP or
ven uto
con to
Ġrapi damente
Ġcapa ci
Ġis raeli
Ġecon omia
ttu almente
Ġca la
Ġtan ta
Ġeffica cia
Ġpro vato
Ġpo eta
os pe
Ġchie do
Ġester ni
Ġen tu
Ġpre sidenza
Ġ197 9
Ġnavi gazione
Ġ ..
Ġorgani zzare
.... ..
Ġcoinvol ti
Ġco e
Ġstre ttamente
olo giche
Ġarti fi
Ġven gano
gen tina
Ġca lo
Ġpubblica ti
ĠP et
Ġri go
ini tÃł
IC I
Ġcri tico
ĠD AL
ash ington
Ġcar ro
Ġstrate gie
Ġdefini ti
Ġscola stici
Ġelettr onico
Ġar tt
Ġconcern ente
gg eri
Ġsembra va
Ġdi r
Ġreligi oso
Ġco ali
Ġnego zi
Ġsottoline ato
ĠMod ena
ĠL O
Ġstabili ti
ĠNuo vo
s et
ĠF al
g or
vi lle
IN E
Ġsenti menti
ĠInterna tional
ER O
Ġav ranno
Ġdiff on
Ġfu r
A le
Ġinterpre tazione
Ġsi cili
gen i
Ġ4 9
Ġdif endere
F or
Ġorig inali
Ġdisciplina re
Ġin gresso
Ġacqu ista
ĠAu gu
ĠAng elo
ĠMicro soft
ĠR ossi
F u
te a
A frica
et h
Ġcomuni taria
os serva
tere bbe
mb ur
ĠVincen zo
Ġforma le
Ġbra ccio
ĠN u
Ġta gli
Ġecc ell
H E
Ġv ul
Ġscon osci
Ġdefini ta
Ġsinda cati
Ġgiorna te
w in
Ġricche zza
Ġutili zzate
Ġdi ede
Ġappro vazione
A genzia
Ġ5 3
ta rsi
Ä į
ag ricoltura
Ġsorpre sa
ĠPro prio
Ġarri v
ĠS anti
Ġvolontaria to
Ġgover ni
ĠMauri zio
Ġdecen ni
in ante
ĠChampi ons
ZI O
Ġspie gare
ĠItali ano
% )
Ġmon diali
Ġinvia re
Ġo ro
Ġsp ontan
stra da
Ġcu rio
ĠL un
fi le
Ġ25 0
ĠR ela
Ġ6 4
Ġ5 1
mina ti
Ã §
Ġdistru zione
un t
d ella
ĠPa la
Ġin gegn
Ġmar chio
ĠL os
Ġidenti fica
Ġistitu to
Ġcompre se
Ġproto collo
ina rio
bur go
M B
ĠSinda co
Ġsignifica tivo
Ġin utile
Ġin cro
Ġpres en
Ġospi ti
Ġman cato
Ġass or
tu m
ĠDo tt
te ca
oren tina
Ġcon creto
Ġtipo logia
Ġtu e
ela bo
indi cazione
... ]
ĠSi gnor
AR A
Ġde putato
ĠUr b
ĠPer tanto
sci u
Ġcele bre
ĠSar Ãł
Ġci tata
: :
Ġpara grafo
ĠD all
Ġd anza
Ġconsul enza
I raq
ĠRe ggio
esp on
Ġinferi ori
ĠQu alora
Ġa mpi
Ġca ssa
Ġdenomina zione
ĠS and
Ġprevi sioni
y e
Ġanima le
! )
Du rante
Ġai uti
U RO
ba se
Ġess eri
V D
Ġarri vano
Ġmate matica
Ġacc en
Ġesemp lari
ĠRe te
Ġquali ficazione
IN IS
artico li
Ġregola menti
etti va
Ġin quad
Ġaere o
Ġscri tte
Ġsu bi
Ġten er
sta ti
Ġcomincia re
ra rsi
Ġpossi ede
ĠSi ena
ĠBer lino
Ġsan zione
ĠBa tti
Ġne ws
Ġcan ali
Ġl enta
Ġcorrispon denza
et tando
Ġarti stica
glia te
Ġricor di
Ġtor re
Ġquanti ta
etta ta
ĠRa dio
Ġcul ture
Ġeventu ale
Ġu s
Ġcomincia to
ĠN et
pro vincia
b log
Ġd ormi
Ġ zo
ĠIN TER
Ġtempo ranea
Ġconver sione
Ġmoder ni
Ġintro dotto
Ġfre ddo
Ġintegra zioni
Ġni po
ĠU tente
Ġmoder no
Ġcresc ente
Ġ197 3
Ġar ma
te mi
Ġagi re
du ca
t ine
immi grazione
Ġchia mati
Ġcontra tta
Ġmecc anismi
Ġcan ta
Ġobbliga toria
Ġle ttore
Ġre per
colo gia
ziona rio
Ġtran s
fi lo
Ġarchite tt
Ġpa tto
Ġsp ero
p la
ora rio
Ġa us
ĠB ea
ĠO pen
ste in
Ġiscri zione
app ar
Ġs lo
ĠS vizzera
Ġsap uto
Ġapparten enza
ĠAl tre
eli ce
ĠN ello
Ġgiard ino
Ġforma re
Ġlimi tata
Ġpor tando
Ġs erio
Ġov est
Ġt reno
Ġcompi ere
g one
ch erÃł
Ġau dio
io re
gre ssi
Ġconse cu
Ġimpie go
Ġotti mo
Ġven uto
Ġocc or
tt le
Ġdetta glio
Ġle ttori
ne i
ĠSu ccessivamente
b elle
Ġforma tivo
Ġter res
ĠB rescia
tego ria
Ġde cine
Ġta vola
Ġscio pero
pen denza
Ġreali zzate
Ġre se
ĠCro ce
Ġpre o
Ġvol umi
Ġimp eria
Ġrifi uta
k in
Ġabb ra
Ġdetermina ta
for d
visi on
Ġriusci re
sc uola
Ġsti ma
Ġrifi uto
ran ei
u ca
ĠM y
T o
Ġimpe gnati
th er
Ġsottoline are
ti smo
Qu esto
Ġri pri
Ġnorma li
c anze
Ġagrico le
di sce
ĠW ashington
Ġ12 0
ĠL EG
Ġprop on
gi ano
Ġn etta
Ġmangia re
co lari
Ġde bito
Ġra dici
ĠA tti
Ġpiena mente
Ġmet tendo
Ġere di
ter ale
pre sidente
imp eratore
Ġgi gante
ĠVi ene
G A
Ġinter ne
Ġprodu ttore
Ġal te
tto rie
Ġsvol gono
Ġes teri
Ġappro ccio
Ġcostrui ta
EN TO
Ġcer vello
lia mo
Ġli cenza
ĠW e
Ġedi li
ter n
Ġci fra
Ġper si
Ġcli ente
on line
Ġvisi bile
Ġav rei
I o
g ino
Ġlib erali
fil m
e ffica
Ġquindi ci
ĠC ra
Ġto cca
Ġtutto ra
Ġprecedente mente
Ġ5 6
Ġca ri
ĠCa tania
Ġcom i
to pic
tion s
Ġsc anda
ĠCon corso
Ġs orte
Ġta ppa
Ġvitti ma
Ġar ro
Ġimpi anto
ĠW ar
Ġinizia re
asse mblea
g erÃł
ĠCon tin
ghe se
zia ti
ĠSta tuto
e mer
us se
ĠU fficio
Ġa gen
Ġ- --------------------------------
Ġinterpre tato
ĠDomeni co
ĠP io
ĠCos tan
Ġfin anza
re mmo
Ġ197 0
tra lia
ĠCast el
Ġprof on
Ġconcern enti
Ġforma tivi
ĠCana da
interpre tazione
Ġin edi
Ġbasa ta
Ġascol tare
Ġno ttu
sso lu
Ġgaran zie
Ġintro du
Ġporta no
= "
Ġp ane
Ġ5 2
Ġtea trale
Ġlimi tato
Ġan dre
Å į
Ġtra duzione
Ġoli mpi
ĠD ar
Ġcen si
Ġalle sti
Ġotten ne
mo si
M L
Ġtradi zioni
ta menti
Ġal za
Ġdestina ta
Ġre peri
Ġurb ani
ĠMa x
Ġz ero
Ġm erci
Ġter re
fi cano
Ġsor ve
Ġinte sa
Ġ197 2
Ġlar go
e vo
Ġcompren sione
Ġconcer ne
Ġve d
Ġvendi tore
Ġrecupera re
a k
Ġdecor rere
Ġauton omo
U RA
h anno
Ġna zione
T i
Ġ8 00
Ġpre via
Ġcompa gno
Ġ6 00
in sta
Ġminis teriale
ĠSe gretario
car lo
si me
ĠA frica
Ġcomple ssa
Ġcal cola
ĠM ona
Ġriconos ce
mis ta
Ġmeda glia
ĠHo tel
Ġregola ri
Ġries cono
Ġcon ci
Ġcoinvol gimento
ina ta
Ġten uti
il lu
Ġtempo rale
Ġgiudizia ria
Ġvo tato
Ġgra zia
Ġipo ti
Ġapposi to
Ġ197 6
a gg
ĠCom pa
Ġcara binieri
ĠCa s
Ġospi ta
Ġsoci eta
Ġele mentare
Ġoccupa zione
Ġvia ggia
ma tici
Ġpresti to
Ġchia rezza
Ġpass ando
zz ino
ĠI stituto
ĠM essi
Ġuniversi tari
Ġma ssi
C hi
Ġcer tezza
ran d
Ġguar dia
ĠSta mpa
Ġedu cazione
Ġs anti
Ġri forme
ĠS t
Ġprofonda mente
Ġgu erri
Ġinca richi
Ġlega me
ĠS tre
Ġattrezza ture
Ġposi tiva
ĠW i
Ġru b
Ġall ena
ĠLo u
Ġprote sta
ket ing
A ccademia
Ġpren o
ti a
Ġra gg
Ġcommissa rio
Ġ" .
ĠE N
sp a
Ġmar tedÙī
Ġde posito
Ġcom missioni
ĠM ani
Ġdestina te
cche tto
Ġconfli tti
Ġmas ch
Ġracco gliere
le tto
b ero
Ġcri terio
ul so
Ġne u
ura ta
Ġmatt ino
Ġe poca
si vi
li ce
Ġind eter
gg ono
Ġimp lica
Ġsi gnore
Ġpatri a
f esa
Ġorienta mento
Ġforni to
199 7
Ġuni versale
Ġeli minare
cu rezza
Ġlegitti mitÃł
Ġtesti monia
Ġesclu sione
Ġfa me
p rono
w ood
to mi
ĠMart in
orta zione
Ġel etti
Ġemo zioni
d rale
lu s
Ġtu tel
Ġpover tÃł
o ttobre
ĠUni to
Ġtra ge
inter essato
g el
ĠS ve
Ġsolle ci
Ġmin uto
ospe dale
G O
Ġre ati
u cci
ĠSe gre
Ġcre ati
y er
ĠDi ce
ĠPer s
Ġtera pia
Ġpari tÃł
dis ciplina
ĠNe xt
Ġso vie
M ar
Se condo
Ġriusc Ã¬
Ġpe ccato
Ġconn essi
ĠC AM
stru zione
li to
l on
oma s
Ġpes ci
Ġes or
Ġcolle ttivo
Ġregola rmente
giana to
Ġsta bilitÃł
Ġmar ina
Ġan tiche
ggia ti
Ġna cque
Ġve dono
Ġbi ci
Ġall ontana
Ġscola stiche
Ġsp re
Ġimp ro
Ġi per
Ġrivol u
Ġstudio si
Ġma tch
Ġsess uale
Ġc ena
ĠUniversi ty
ĠV II
Ġmili one
Ġpre ten
ĠT ar
Ġgiovani le
f ri
ĠIn ghilterra
ĠBar ba
app ello
ing ere
Ġconten ere
Ġpre sie
Ġrisp ettare
Ġspe dizione
u de
Ġperson almente
ĠP onte
Ġprofessionali tÃł
ass unzione
Ġpun tata
Ġtipo logie
Ġme te
Ġp is
Ġprevi denza
Ġpes anti
Ġsani tarie
Ġimp atto
Ġprof u
Ġv on
Ġproce dimenti
Ġavvi cin
sp ort
Ġconsider ando
Ġprodo tta
x elles
Ġeserci zi
Ġdefini tivo
gu erra
Ġsegu endo
Ġcri tici
ĠCit y
Ġfis cali
Ġtrova va
ga me
Ġappro vata
Ġta sse
ĠC osta
ĠV orrei
Ġ197 1
Ġconn essione
Ġca tena
Ġconcre ti
bur g
Ġt ela
Ġcic li
c osa
Ġrilev anti
Ġin giu
Ġsensi bilitÃł
Ġarri vati
Ġro mani
Ġpaesa ggio
Ġlabora tori
versa rio
zz ante
Ġreligi osi
Ġ {
ĠCamp ania
ĠU NA
Ġcircos tanze
Ġrif ugia
Ġmor Ã¬
Ġle zione
le sia
Ġespressa mente
Ġucci dere
Ġvinci tore
ce a
Ġs inis
gno si
Ġusa ta
Ġattra ver
m inis
ĠColle gio
Ġaffi an
ĠWillia m
li re
g es
ĠB an
Ġverti ce
V IS
Ġro ssa
Ġfatto re
ĠR esta
Ġaggi u
impor tante
R U
Ġprivile gia
ĠVi r
an golo
Ġali mentari
ĠQu ali
Ġrispar mia
ĠE ssa
c eri
. ),
ĠAn zi
ro s
Ġesist ente
ĠGiu lio
Ġcandi da
Ġdisa gio
V er
c elli
ĠLu glio
Ġbi blioteche
fa ccia
Ġs ena
Ġrin vio
ĠMo di
s ono
Ġmuni cip
ĠA ttivitÃł
Ġambi ti
ma tiche
in na
Ġperi feri
Ġsugg er
Ġfonda zione
Ġconte mp
n al
Ġcontro versi
Ġconfor me
ĠP ale
) )
Ġimpe gnato
ĠSalva tore
Ġa ustria
Ġna zioni
Ġcro ce
ĠM ess
Ġresta no
Ġrit mo
ĠD omenica
ZI A
Ġcampa gne
ĠXI X
ĠR on
ĠCon sid
inno vazione
c ell
ri ano
Ġcons ent
ĠMedi terraneo
Ġto p
Ġs onda
Ġpensi eri
Ġristruttura zione
I T
and one
AR IO
A v
Ġedi ficio
Ġinca rico
Ġ196 8
Ġcom menta
Ġna pole
Ġmulti media
Ġvali ditÃł
Ġcol oni
Ġd enti
Ġgi Ã¹
Ġlavora tiva
Ġopera zione
Ġa mo
Ġproce de
Ġsc ru
B i
Ġdi am
COR SO
ĠVo to
et tori
Ġlib eri
ĠRi cca
Ġimp oste
Ġo pposizione
Ġora rio
ĠGre cia
era te
Ġmedi ca
Ġor to
Ġspor tiva
ĠR in
Ġad detti
Ġlib erazione
Ġpreci pi
Ġpreghi era
Ġprofon ditÃł
OR E
âĢ ľ
Ġevi denza
Ġsinda cato
Ġconc esso
Ġdetta gli
ĠSi to
di zioni
Ġrichi esti
Ġcontinu ano
man u
ĠP an
Ġcirc uito
st on
Ġcom posi
ĠY a
en se
ci mento
Ġsui ci
Ġso gni
Ġforni tura
ĠFran ci
ĠCom menti
Ġb ui
-------- ----
vilu ppo
ĠT E
Ġrisp osto
n ella
ga s
Ġab usi
da d
Ġeffettu ati
Ġcosid detta
ĠG EN
Ġa di
ĠE ppure
ĠSc ritto
Ġvali do
Ġsinda cale
ĠCon gresso
Ġequi val
Ġcoali zione
Ġcomuni tario
Ġricor rente
Ġben essere
Ġbritan nico
Ġfin chÃ©
Ġso lare
Ġmagistra ti
Ġre tribuzione
Ġto l
Ġvei colo
m ol
Ġver tica
Ġle va
Ġstra no
Ġapp artiene
Ġsom ministra
z ine
ĠU NI
Ġcongi un
Ġinter roga
Ġpreci so
Ġadegua ta
Ġmer coledÙī
Ġintito lato
Ġprevi den
Ġfis sato
ĠRich ard
Ġren dono
Ġan te
ĠC ine
ĠFa bio
Ġrisa le
Ġauton ome
Ġn etto
p ale
Ġsocc orso
Ġacc el
di ti
Ġti ra
Ġarri cchi
Ġresta re
Ġseconda ria
glia ri
Ġ6 8
a ve
Ġotti mi
Ġesegui re
Ġcosid detto
Ġdetermina ti
Âł m
zz Ã²
Z E
Ġora ri
da y
Ġmotiva zione
Ġrif u
Ġva sta
Ġporta le
Ġsp ar
ĠTri este
g ali
r vi
ĠGui do
ĠBer gamo
SI ONE
Ġtro vo
Ġinte g
Ġdesi gn
zio si
Ġsta mp
Ġrinno vo
Ġdimenti care
Ġp all
a zia
Ġspor tivo
Ġva i
ĠX VI
Ġedi zioni
ĠS ER
Ġc d
ĠR oss
S T
ĠC le
Ġsa ggio
ĠGiu stizia
BB LI
for nia
k ing
Ġatte ggiamento
ĠCo dice
ina ri
Ġsor ge
ĠA ve
le ggi
ĠLi gu
Ġimpa rare
Ġp ed
ĠCH I
ri sta
Ġfalli mento
ĠPur troppo
ff o
Ġalb eri
ĠI P
vi rgilio
Ġemer ge
Ġinci dente
Ġsta bile
iss Ãł
Ġ197 4
Ġdott rina
Ġn Ã¨
d Ã²
ĠA re
Ġdiffici li
Ġtera pe
Ġemer genza
Ġmanten imento
Ġsensa zione
Ġele vata
Ne ws
el lare
Ġpen s
ĠAR T
Ġinten dono
so lo
Ġop inioni
ĠDo cu
Ġprospetti ve
Ġpote te
ĠAr ri
pp er
Ġess ersi
Ġriserva to
at mosfera
Ġb on
Ġsucce de
Ġvos tri
qu io
ccia io
par to
bi e
Ġ omogene
ac quisizione
Ġsu sci
Ġaffi data
Ġimpedi re
ĠC gil
Ġfaccia ta
Ġmeta l
men si
t he
pi enza
Ġspetta coli
Ġdisp orre
Ġresta uro
Ġnorma tive
f is
Ġmotiva zioni
Ġmi to
vali ere
Ġ5 4
ĠG lo
Ġaffi dato
o d
Ġri dotta
AN TI
TO R
Ġequi librio
g anti
Ġacca duto
ĠAl b
Ġsta r
h u
Ġchiu dere
r l
Ġsostan ziale
Ġs va
ca tto
cin io
Ġcapp ella
ti pi
Ġmodu li
Ġconce zione
Ġgradua torie
Ġusu f
Ġpotenziali tÃł
Ġconsu ma
Ġri cchi
Ġmini mi
titu dine
Ġbar ca
Ġso p
ĠRo ck
Ġimp orto
Ġprovo ca
ĠA V
v ang
na to
Ġto tali
glia ti
Ġincre mento
Ġc rona
ĠCri sti
ĠBru xelles
ona ri
Ġfam osa
inter vista
ten eo
Ġgratu ito
Ġtri on
fica te
cin que
Ġusa ti
Ġcampi onati
ul to
le mme
Ġdisc en
Ġpro lun
Ġcondanna to
ĠD VD
G io
ar re
ĠVal en
omici dio
ĠO cc
ggia menti
Ġvorre bbe
Ġsche de
' "
Ġre almente
ĠOli mpia
Ġfa ttura
Ġcolle ttiva
use i
Ġraggiun gimento
Ġdidatti co
? !
uro cra
AN D
ome o
Ġcolle zione
ĠV is
Ġrilascia to
ĠB io
Ġorizz on
M S
Ġreligi ose
ess or
ĠMar zo
Ġrius cita
bili tazione
ES S
Ġgenera zioni
Ġsoddisfa zione
s ma
el mo
Ġo lio
Ġpi ttura
le t
ĠS or
ĠSu b
Ġstabili te
ĠS hi
Ġesi bi
ĠA G
f al
Ġpe da
Ġcorto met
me di
ĠMo ra
ni che
ggia te
Ġconcor si
Ġ9 5
zi osa
ĠCom i
Ġconven zioni
Ġf estival
Ġco re
Ġta glio
Ġaere i
ing er
Ġpe cu
Ġg el
Ġrima sta
Ġ1 000
Ġlegger mente
ĠTer ri
lan ese
Ġpreli minare
Ġscienti fiche
ĠFerra ra
Ġaper ti
Ġin do
Ġscar sa
ĠS are
lib ri
Ġdiventa ta
Ġre clu
ĠP U
Ġin cora
Ġben sÙī
ĠVi ce
Ġsal uto
Ġespon enti
Ġcal ci
Ġc lan
es posizione
av vio
ĠCom mercio
Ġordina ria
Ġtari ffe
Ġ5 7
Ġcard inale
ĠRi f
Ġba gno
Ġag ri
Ġaffer mare
Ġfa te
cor ds
po lare
Ġzu cch
c chÃ©
Ġto sc
Ġplu ri
Ġcatto lici
quo te
Ġver si
Ġl una
Ġa sc
Ġ[ ...]
mo du
Ġne ve
Ġtro vi
s ani
pen sa
Qu ando
Ġimpie gati
s ki
Ġal lievi
Ġre c
ĠT ran
ul sione
Ġappli care
gn os
Ġrisp etta
IC E
or gano
Ġproprie tari
ĠX II
ni e
ĠK ing
Ġrima sti
Ġg esto
Ġ5 8
ci do
wn load
Ġvi rus
Ġcom anda
Ġpassa ta
Ġscri sse
Ġlan cio
Ġve der
asse gnazione
ĠO R
Ġopera tiva
Ġavven i
Ġpon ti
ĠCor riere
so dio
ĠProvin ciale
ĠT en
z er
Ġtraspar enza
ĠSU L
Ġesclusi va
Ã ¤
Ġ he
mi glia
Ġrifle ttere
gg ero
Ġtess uto
Ġri to
Ġalterna tive
Ġann u
Ġa bilitÃł
e y
ĠMa ster
Ġceri monia
o cchio
Ġcen sura
re tto
uto re
oni ma
Ġcir conda
Ġattu a
ĠK ar
Ġfid anza
onore vole
Ġsu r
fran co
Ġsani tari
Ġappunta mento
Ġdistribui to
Å ¡
ĠS os
tun no
ver sione
Ġagg ra
N E
A C
H I
... "
individu azione
Ġdebb ono
Ġaff res
Ġperf ino
p io
Ġdis chi
sta ta
Ġsepa razione
f ino
di che
ĠRa ffa
Ġci lin
Ġel enco
A D
c gi
Ġtras messo
Ġstori che
effica cia
Ġdov esse
Ġrasse gna
Ġpoten ziale
EN E
Ġve cchie
a ttore
ĠIn vece
Ġfed eli
Ġoffer to
lan dia
Ġtecnologi ca
per s
Ġnon che
ĠCen trale
Ġindi cata
Ġv esco
Ġser vono
Û ģ
Ġca ss
Ġa si
Ġprofi li
Ġsono ra
Ġcontrib uire
ĠC el
a ffer
Ġde va
Ġm entale
Ġr ina
Ġre cita
Ġsca mbi
L gs
Ġgu ardi
ĠC OS
Ġva canza
Ġrappresenta ta
p or
a prile
Ġri tra
Imp ero
Ġpresti gi
a ra
ĠSpi rito
ple ssi
ĠN E
Ġrispar mio
lo w
Ġeserci tare
ĠS en
ff Ã¨
ĠNa tional
ĠA ri
uni verso
av ven
Ġe stin
uo le
Ġpiani ficazione
Ġra zza
Ġcol ui
Ġar mate
F ran
Ġt ene
ĠDi chia
Ġperman enza
ĠLA VOR
Ġsc orre
Ġgiuri sprudenza
Ġcellu lare
O rdine
Ġte mpio
Ġcomp ar
d de
or zi
a cco
v ante
Ġvaria bile
Ġi tin
Ġgi ra
Ġcap isce
ĠB ia
Ġconcentra zione
= &
i ra
GLI O
Ġindeter minato
tt ini
Ġtele fon
Ġvin se
indi ce
p on
Ġsettentri onale
ĠZ e
ĠA ward
a st
om enta
Ġimp one
Ġcomplessi tÃł
Ġfoto grafia
ggi ano
Ġpiatta forma
Ġm m
ul lo
go li
Ġspeciali zzazione
Ġacc ettato
v et
Ġrip oso
Ġbri l
Ġar moni
g al
Ġs esto
Ġcinqu anta
Ġrispetti vi
Ġproba bile
ĠCi vi
Ġal p
Ġvole vo
Ġaccompa gnato
j u
ĠSi mone
Ġtra tten
Ġspia ggia
espon sa
Ġvio la
ĠG al
ĠUl ti
Ġnor malmente
Ġavven ire
ĠDE C
Ġprosegui re
Ġvideo gio
Ġsconfi tto
Ġurb ano
pa ce
ĠN umero
Ġcon duce
Ġdisp er
Ġappro va
p us
mis ti
gn ante
ĠProvin ce
ĠConsi gli
ĠMon diale
ĠS che
Ġfe derale
p osta
Ġpanora ma
os se
Ġvo tare
Ġsor pren
CE E
ck er
Ġu si
ĠGiu gno
Ġmagistra tura
Ġconcor renti
Ġsupp le
co lato
Ġconc etti
Ġesi stenza
esso rato
Ġbar ba
Ġbra ccia
Ġlegisla tiva
Ġdemocra tico
Ġfa cente
en zialmente
Ġver go
Ġacquis tare
ĠBol zano
ĠSa bato
ĠFran k
Ġeletto rali
le tta
ĠRo y
Ġta sti
Ġvaluta zioni
Ġpelli cola
Ġru sso
zz arsi
Ġtranqu illa
. âĢĿ
Ġu sando
ĠLa ure
i ono
pi Ã¹
Ġinforma tica
ĠFor mazione
at le
ĠSa int
si te
anesi mo
EL LA
Ġauton omi
ro gazione
imp atto
ĠV ista
Ġben issimo
ĠCON CORSO
ria to
Ġsottop osto
le tter
os ess
Ġpo tenti
Ġcomun ista
Ġvisi te
Ġpi ttore
Ġcomplessi vamente
ĠCast ello
In ghilterra
Ġri mar
Ġinforma tivo
Ġma ri
Ġ %
Ġavanza ta
Ġmis tero
Ġdes critto
Ġstre tta
tte zza
" "
ĠPi cco
ĠI ta
Ġpar zialmente
Ġtelevisi vo
Ġpermet tono
eli b
Ġprodu zioni
Ġve diamo
ĠSe gna
al tare
ro si
TU RA
en ni
alla r
Ġa ttore
Ġdi ri
Ġter reni
Ġdiven tando
Ġman cano
ia le
b an
Ġriconosci uta
Ġambi enta
Ø ¨
? )
Ġsca rica
Ġe voluzione
Ġb urocra
Ġpa tolo
Ġ] [
Ġevidente mente
archite ttura
gli mento
Ùį .
ĠDo ve
Ġ **
tro po
Ġfa mosi
te d
Ġglobali zzazione
via re
ar gento
cc ani
p hi
ggiorna mento
f ero
Ġlancia to
Ġv isti
Ġsalva guardia
ĠPa ce
Ġradica le
Ġper o
Ġci e
A lla
ĠCos titu
E l
Ġesa uri
Ġritor n
Ġcol onia
ĠMich el
Ġten nis
le a
ĠS mi
Ġri belli
ĠA ir
cor si
Ġsperi mentale
Ġacquisi re
Ġre gina
ĠPer ugia
ĠI TALI
Ġsco pi
Ġfini ta
Ġinci denti
Ġlegg enda
Ġapp a
fa be
Ġc ure
ĠA h
os tro
pp are
Ġcon tare
Ġcoer enza
Ġdu ro
Ġren dendo
Ġasse gnati
Ġ q
Ġriferi menti
Ġs fondo
Ġper tin
all er
Ġdi versitÃł
Ġb ombar
ĠH el
Ġde boli
Ġpron ti
ĠMa uro
Ġstatuniten si
P U
Ġter rÃł
M e
Ġistitu zione
Ġcorrispon de
con tin
Ġsba gliato
Ġor gano
ĠT orre
ci ti
Ġpar lano
Ġpre scin
sserva torio
r erÃł
ese mpio
Ġcontra ttuale
ĠAd esso
Ġca ut
Ġfunziona ri
Ġasp ettare
Ġass ur
g oni
Ġat tribu
ĠMan u
Ġperf etto
lica ta
ro ma
Ġle tt
Ġtra du
Ġraccon tare
ĠT ER
Ġsingo lare
Ġca lore
vo ce
ld quo
a meric
et tere
ro cco
Ġd roga
Ġco ppie
Ġconsigli eri
Ġtorna to
tori ali
Ġconf e
Ġoper ano
ĠApp ro
Ġba cino
Ġperce pi
te sto
Ġsta ff
Ġs how
ol d
Ġatti vi
ee k
******** ********
Ġcampi oni
ĠJ ose
rd quo
ĠCali fornia
ĠM E
ĠL is
Ġintelle ttuale
B o
v arsi
h ar
ĠPu glia
Ġtipi co
Ġv el
Ġazienda li
Ġra p
ĠAngel es
ĠC ur
Ġco ro
Ġfu turi
Ġop inione
si de
ĠMe zzo
Ġconsent ono
tr oni
Ġri esco
Ġattribui to
Ġav viato
Ġca dere
Ġven dere
Ġmi ll
Ġfanta sia
Ġobbli go
g y
Ġva do
Ġhandica p
Ġconosci uta
l om
Ġinna mo
ccia to
ĠRicca rdo
ĠComp any
ĠSil vio
Ġnorma tivo
Ġvi vi
OR I
ĠCa mpo
ort h
Ġov unque
de i
Ġinten zione
Ġfu mo
Ġoccid entali
Ġapp ai
do ro
Ġuni ta
Ġconsegui to
Ġra ti
ch t
m ono
li s
Ġmo bile
Ġinvi to
ĠMessi co
c oni
Ġinse gnamento
Ġmetropoli tana
ĠSiste ma
Ġvi cin
er no
Ġb esti
t ron
Ġma gne
Ġsoddis fare
Ġflu sso
' </
Ġe p
v vi
Ġchi edono
Ġritro va
pe voli
ĠNe ws
Ġgiuris dizione
Ġm uore
Ġb ur
ĠI sa
ĠX III
Ġconn esse
Ġpremi er
Ġdisp ia
uo i
Ġb orsa
Ġsti pen
Ġchi edendo
Ġsta gi
Ġsf era
Ġte tto
Ġprodu ttivo
Ġfisi che
Ġvisi tare
Ġadegu ato
ĠR O
Ġdiventa no
Ġs ana
Ġraccol ti
Ġschi era
glia mento
Ġriman gono
n s
Ġformu lazione
Ġchiu de
at ten
ĠNess uno
Ġ" ,
Ġtipi ci
ĠMos ca
ĠE st
Ġpo la
Ġsequ enza
Ġscompar sa
Ġi so
ĠD unque
Ġos cu
S U
on tare
Ġsa cra
ĠFerra ri
epi sodio
Ġinte so
ch ina
zz anti
ĠFa bri
ĠP is
ĠA prile
Ġspor tive
Ġappro pria
Ġdisposi tivi
Ġsegre ti
ĠC olo
Ġaccompa gna
Ġavvia re
ri care
Ġ194 5
Ġsupera mento
v anza
Ġlegg era
ĠAl ber
ĠE manu
Ġ196 7
a la
Ġospe dale
a sta
Ġpio ggia
ĠBi sogna
Ġtenta tivi
a mico
Ġvi te
Ġproveni ente
ĠB ill
Ġvin coli
ĠAL LA
Ġcoinvol to
Ġamm esso
Ġfa c
ĠG il
Ġsosteni bile
Ġsc ul
Ġanda va
Ġcom m
Ġucc elli
anda mento
ĠP en
Ġre pubbli
Ġprovve dere
Ġproveni enza
ĠV ati
ul li
Ġdotto r
Ġraccol te
pra ttutto
in cre
ĠAn n
Ġca mere
Ġra zionali
Ġgiudi zi
Ġs eri
ON A
Ġdetermina te
Ġco gni
Ġci fre
ĠREG I
Ġcos tretti
Ġado lesc
ste m
uni one
der s
tti co
ĠStu dio
Ġsalve zza
ĠPro cura
Ġbi anchi
Ġtrib uta
uo lo
Ġvi so
> '</
Ġistru zioni
Ġi gi
Ġsfor zi
Ġme zza
E E
Ġv ere
Ġbandi era
ĠT eo
um ere
ĠRe cords
Ġfun zionalitÃł
Ġconsu mi
ĠD ella
cc ano
ĠK u
Ġri gore
Ġcensi mento
Ġdell Ã¢
Ġpar tendo
TI CA
Ġsegna li
Ġamm essi
Ġsca ten
Ġin ta
Ġtele com
ur t
Ġcor rere
ĠD s
Ġord in
Ġra ll
ĠSe de
Ġcurio sitÃł
Ġpare ti
gro up
Ġesp osi
ĠSe conda
Ġabb ond
Ġc ana
a genzia
Ġc ere
Ġesp erto
Ġbamb ina
ĠP resenta
i di
Ġriusci ti
ĠOri ente
Ġcon ting
ĠP RI
Ġins erita
Ġsca mbia
Ġtrage dia
der ci
Ġedi lizia
Ġiner enti
ĠV O
Ġsegna lare
Ġgra vitÃł
Ġgi rone
mon do
for man
Ġampia mente
Ġscena rio
Ġga mma
ĠE D
ĠEli sa
Ġbattu ta
Ġsos ta
Ġcar to
in anti
Ġdu ca
B O
ĠMatte o
Ġe colo
ver anno
Ġdefini te
Ġpara di
Ġdistin zione
Ġvelo ci
Ġfa ma
ĠC ore
Ġsca l
. ;
Ġ194 3
Ġanzi chÃ©
Ġcombatti mento
Ġcur va
ĠD ol
ĠTh omas
ES TI
Ġse pp
Ġpreoccupa zione
ĠC OL
ser vi
ĠA ni
Ġmar ca
f un
Ġinseri ti
ella te
Ġcan n
h h
Ġvali da
Ġfo glie
cchi ere
men tando
ar li
Ġelet tori
w ell
Ġtras mettere
Ġsignifica tivi
Ġesten de
un cio
Ġindi cazione
EL LO
ĠO rd
tis cali
via zione
ĠPoli tiche
Ġatta cca
Ġcorrispon denti
Ġalle ati
Ġpos teriore
ce ano
Ġtestimoni anze
Ġpreci sione
Ġs ten
Ġversa mento
de m
Ġschia vi
Ġbron zo
Ġappai ono
Ġre tti
Ġfa colta
Ġper ven
esp lo
Ġconsi stente
Ġdecen nio
ĠGiu lia
Ġse g
Ġdemocra tica
Ġin cu
ĠO N
Ġtratta menti
Ġordina mento
Ġimmedia ta
Ġriferi to
Ġsc orsa
g allo
te mpo
Ġnucle are
Ġstruttura li
Ġma ga
Ġcollabora tori
Ġentu sia
Ġpreve dono
ĠF ini
Ġpi ede
Ġfatti specie
Ġven dite
ran n
ĠT ol
Ġopera tive
S an
ma li
vol to
Ġfru tti
ĠU S
Ġcristi ano
Ġco gn
Ġcontrib uito
Ġlegisla tore
Ġestre ma
ĠE ss
Ġnote voli
Ġchitar ra
Ġposi tivi
Ġconvin zione
ĠD S
Ġno bili
ĠM ON
Ġragg ru
oni o
Ġvinci tori
Ġconcre ta
ĠP S
Ġu bi
Ġat mos
Ġprog resso
Ġgi ri
Ġinnanzi tutto
Ġelabo razione
ĠA C
Ġdi visa
Ġ $
Ġdi missioni
mon ti
Ġt rono
Ġmis sioni
Ġcor renti
Ġbre v
ĠLe ggi
Ġcoopera tive
Ġdov uti
shi p
8 00
pa ra
bbi o
A lle
tt ina
u tando
Ġamministra tori
Ġru more
Ġm elo
Ġsu oni
ĠG IO
T e
ĠA bb
Ġacquis tato
Ġd ette
Ġautori zzato
ran zo
Ġsfu ggi
ĠR esponsa
Ġcostitu zionali
Ġdiv ul
Ġf inis
Ġsuper fi
Ġven t
ck y
mis e
Ġimpe gn
Ġmano vra
usa lemme
ĠT omma
Ġ one
Ġchi mica
Ġmanif esto
Ġcele bra
Ġentra to
mi e
s tanti
Ġristo rante
An che
te vi
Ġvol ti
tua rio
Ġotten uti
Ġsugg eri
Ġforma ta
Ġacqu isto
Ġdigi tali
Ù İ
Ġtran ne
ĠE S
Ġno vanta
Ġsenti mento
ĠW est
Ġnego zio
ĠBla ck
Ġrichia mo
ĠL una
T RI
tr y
Ġfed erali
min ale
Ġriguard ante
ĠVi ta
ĠVi deo
meric an
an tico
ĠU E
li te
Ġclassi ci
all en
Ġro ves
ĠK en
Ġriserva ta
ĠTur chia
Ġar ra
ĠLa ura
Ġopera i
ĠE sso
Ġfun zion
Ġ196 9
Ġcan na
Ġpreferi to
Ġa pr
ĠChar les
ĠOcc orre
Ġimprov visa
ziona te
gi bile
Ġfemm ine
Ġcomp arto
ĠAl lo
Ġb oni
ĠH it
B C
Ġrimb orso
val lo
Ú ¾
Ġc uo
Ġu tente
Ġdeci si
Ġdebu tto
Ġindividu ati
allo ra
in chiesta
Ġdif en
Ġd ro
ĠAn ti
Ġsegre teria
gra mmi
ci di
Ġd ono
Ġdeten uti
Ġpro ie
ĠPol onia
Ġripro duzione
ĠNove cento
ĠQu ella
Ġso glia
ĠDi rig
ĠDa vide
Ġautomatica mente
Ġvir tuale
Ġfu sione
ccia re
mp ere
Ġm erita
Ġassa ss
Ġagen zie
Ġaccol to
ĠS un
gos la
Ġta ssa
Ġrapi da
Ġa stra
Ġ6 6
Ġna ti
Ġconten uta
Ġdes tro
Ġclassi ficazione
Ġess enzialmente
Ġtif osi
Ġsettiman ale
z an
Ġsorri so
i ro
Ġv or
al za
n or
ĠCom missa
Ġv an
Ġpoli zio
Ġdove vano
Ġgu ari
Ġmostra to
er ona
Ġmiglio ra
Ġinser zioni
ĠA ma
ensi va
ar ne
trib uzioni
ĠRe d
ĠPro te
Ġcos te
Ġ oma
Ġsegui ta
Ġdina mica
Ġele mentari
in ga
Ġe va
Ġarri vata
Ġproba bilitÃł
Ġpar enti
in c
Ġadotta ta
Ġma ppa
sc ino
Ġprima ria
Ġv eli
ĠA f
ca bile
Ġsottop osti
ĠAL L
Ġpassa ggi
Ġs mal
Ġlavo rando
Ġur genti
stron omi
ĠC AS
F a
ĠLe onardo
Ġcom busti
ch el
Ġsta zioni
AN SA
Ġasso l
Ġroman zi
con ti
Ġman uale
Ġcu ri
Ġcompagni e
ba ck
Ġne uro
en tri
ten zia
ina ti
gua glianza
ĠC is
Ġdel ine
elabo razione
Ġge m
to p
Ġricor rere
Ġpri vo
Ġan teriore
Ġvi ttorie
Ġconclu dere
b en
Ġfru tta
Ġabband onato
Ġintro durre
ĠSe mbra
Ã «
Ġcompa re
Ġmuo ve
Ġami che
Ġaper te
Â ²
Ġassocia ti
Ġapplica ta
p lici
Ġsepa ra
e p
fa tto
Ġsoffer enza
Ġsimbo li
era rio
Ġrile vato
Ġpole miche
Ġdif etto
ĠV io
ĠT esto
tor y
Ġca su
Ġcomuni tarie
Ġora le
ĠS T
Ġcol onne
Ġca mi
r ra
Ġmeta lli
Ġdo tazione
Ġpsi chia
va ra
Ġm esco
G IO
Ġcom media
Ġpad rone
ba te
TI C
app a
ĠS era
199 6
Ġ6 1
ĠP ino
Ġin vali
gu ono
Ġriuni oni
Ġfun zionali
Ġn eri
ĠUmb erto
ĠGu gli
Ġdisa stro
da cons
ĠGer usalemme
G ra
Ġfum etti
Ġcontratta zione
ĠNo te
Ġga mbe
G IL
Ġm esti
Ġstatu s
cc ini
Ġtari ffa
Ġcortomet raggio
w ord
Ġsu ona
ĠFin anzia
ag osto
itali ano
Ġvole te
Ġcon ge
ĠRoma gna
ĠDani ele
Ġpar eri
ĠDI S
Ġcomple tamento
Ġbo tte
ĠAl do
Ġcre ando
Ġ6 2
Ġdi ciamo
ĠO l
Ġtra ma
Ġpreo ccup
Ġchia mare
me dio
ĠC EST
ĠN ome
Ġcri sta
ĠMa dri
Ġimpie gato
pli ce
Ġgi unto
Ġindipen denti
ĠYo u
Ġdenomina to
Ġpre da
Ġcer cano
Ġval ere
Ġpia tto
Ġbos chi
ĠMi li
orta te
Ġcaval li
ul um
o ol
Ġindipendente mente
o lio
acc er
C ol
Ġterm in
Ġpen sioni
ta bile
Ġfon t
Ġcal da
Ġgiun ge
teria li
Ġincontra re
z ina
cc ando
Ġbe v
Ġla cri
Ġaggiun ta
Ġsen o
zia ta
Ġmana ger
gg endo
tten do
Ġfa sce
Ġs fa
- )
Ġsa ggi
Ġdisposi tivo
Ġpo p
EG LI
ĠMa i
U T
Ġintra pren
Ġva canze
Ġb allo
n ess
Ġso ffi
Ġorigina rio
Ġabband onare
U D
Ġpren dendo
Ġscienzia ti
Ġbo tti
Ġri per
otti ca
Ġm esse
ĠM anto
v escovo
p one
z oni
ter s
ali a
ĠMa ssa
Ġsignifica tiva
ĠCa gliari
ĠLe one
ĠFer ro
ĠGiu liano
Ġspagno la
Ġconf erimento
Ġport Ã²
Ġo dier
Ġprescri zioni
Ġand ando
Ġmede simi
Ġv etro
ĠÂ ©
Ġd etti
ĠF ol
vo cati
BI LI
Ġtras messa
Ġs essione
ĠZ an
ddo ve
Ġsape va
Ġfre tta
ĠE ssi
f an
do ve
Ġconsidera te
Ġess erci
Ġorganizza tiva
ĠMess ina
ĠGi ro
gen da
Ġri va
Ġsicu ra
in vesti
ta va
Ġta len
inf luenza
Ġassi sten
Ġa posto
ura to
Ġimm er
Ġcompeti zioni
Ġsen z
Ġcostante mente
re gione
m ante
ĠMart ino
Ġabband on
Ġnipo te
Ġpaesa ggi
Ġcontra ttuali
ĠMa y
ĠP res
Ġmet tono
ĠL on
Ġcres ce
ĠW hi
Ġcla uso
ĠSo ciali
Ġfa sti
tta ta
Ġservi re
Ġdiver samente
Ġfrequ enti
Ġstudia to
le onardo
Ġ194 4
Ġand rÃł
e tichetta
Ġcons er
Ġdo tata
Ġide ali
ĠS tru
Ġlibera mente
Ġdo lo
Ġre voca
Ġeffica ci
Ġmar keting
uta mente
av viso
si co
Ġc era
u tico
ĠA ttualmente
tor ni
vi c
Ġge omet
E s
ĠS ad
gli endo
le tti
> >
et re
Ġta lmente
ere i
Ġmi lanese
AA AA
Ġbus iness
Ġvaria zione
Ġsorve glianza
Ġcre ata
ĠAlc une
c uno
Ġsoli tamente
Ġe state
Ġdesid era
Ġinno vazione
Ġdire tte
Ġ- ,
Ġmen sile
ĠC ard
Ġpa sti
Ã© e
ĠCom un
ul teriore
Ġraccol to
Ġbui o
Ġ- ----
Ġesp osizione
Ġopera tivi
Ġcontinua mente
Ù Ĵ
Ġpetro lio
ĠVi enna
ctor y
Ġcompara tiva
Ġsc orsi
Ġidone i
Ġvet tura
Ġfed el
ĠS et
ge ment
Ġecc lesia
Ġsc endere
Ġpre de
a eroporto
Ġpu ra
cche tti
Ġris cal
ĠFia t
re d
Ġappro fi
Ġintra pre
Ġva da
Ġbenefi cia
Ġamp lia
par te
ĠSve zia
Ġva sto
Ġs v
Ġgre ca
Ġe mbri
ĠCa ss
sche da
Ġuni camente
Ġpu ro
ĠMa ra
Ġripren dere
fin anzia
Ġesp osto
in va
ella n
Ġlavo razione
Ġscienti fici
Ġferi ti
Ġriparti zione
inqu inamento
ĠTele com
forman ce
Ġsfru ttamento
ff y
ĠP R
ĠDi visione
Ġdes erto
Ġ196 5
ĠG RA
Ġinc lina
Ġforni ti
Ġpreventi vo
Ġbene ficio
ĠJ os
ĠJ un
Ġpasse ggeri
Ġmusici sti
ĠLin ux
Ġ }
na me
du ra
Ġri ghe
Ġconfigu razione
h en
Ġab ro
ĠAff ari
Ġtrasferi to
Ġv eter
le o
ĠI MP
Ġs anto
ĠGa sp
ĠPro to
Ġprog ettu
Ġsu on
org anismo
ar y
la m
Ġgiun gere
glia mo
Ġcons enta
Ġpo e
ur b
v elli
v est
mo d
Ġcondivi dere
an der
n ando
ĠNa pole
Ġp ru
Ġeduca tivo
in d
ĠPa ola
Ġgra vid
Ġ196 0
Ġt onn
Ġ7 6
quisi to
era zioni
ĠFer din
Ġriten ere
Ġsu pre
Ġprote ggere
Ã³ n
Ġadegua te
ĠS lo
Ġlegisla tura
Ġprigioni eri
Ġca da
anis tan
Ġcap isco
g eria
Ġde centra
Ġriser ve
Ġmis e
ĠLu ciano
Ġugu ali
Ġsinis tro
Ġinsegn ante
ĠXV III
Ġconos co
ar chia
ĠB et
Ġci mi
E B
is sa
vis to
Ġver tici
Ġlavora no
Ġpo ch
ĠMadri d
Ġset tanta
Ġsp inta
Ġapprofon dire
p lay
h ome
ĠHa i
Ġpla y
Ġricerca tore
ĠLocali tÃł
Ġbi blio
Ġesegui to
in verno
Ġv este
ĠFa x
g ma
menta ta
Ġsal to
Ġrisarci mento
Ġci tazione
Ġcal cia
Ġcollega menti
h y
tili tÃł
ĠRisp ondi
Ġin utili
le i
Ġter remo
Ġall un
Ġfonda tore
is p
Ġfronti era
ci clo
Ġdisoccupa zione
Ġno bile
Ġcomp ra
Ġriten go
Ġ8 8
Ġinvesti mento
Ġd eroga
trib uti
k is
P ER
mbur go
Ġdimin uzione
Ġamici zia
app ren
Ġdif ensore
Ġro tta
Ġra ggi
Ġstatu a
Ġdidatti che
Ġprofession ista
Ġd ri
Ġre stri
Ġcata logo
pi ano
Ġmi gra
Ġmoda lita
Ġven endo
Ġspa da
gi ani
" '
cu la
Ġface vano
Ġmolte plici
Ġriserva ti
Ġcon veni
Ġh ard
Ġquaran ta
Ġve dre
Ġo b
Ġma ritti
k h
ĠPa ri
ĠMol to
ĠC CN
ĠI X
ĠMi lan
ĠNo ta
Ġamp li
Ġferrovia ria
Ġi mba
ĠLu g
Ġspetta tori
Ġpo vero
ĠR io
ĠPoi chÃ©
Ġaspetta tive
Ġvos tre
Ġosserva zione
Ġpur chÃ©
Ġbra sili
Ġpass Ã²
Ġflu ssi
th read
Ġdip into
Ġnon chÃ¨
Ġtren i
ĠM ana
Ġtecnologi co
tre tta
Ġdimostra zione
Ġali menti
ce d
vis ti
Ġassocia to
m us
f ono
Ġvisita tori
Ġdi viene
Ġturi sti
logi che
Ġincontra to
Ġgui data
vo ra
ĠSo ciale
ci te
Ġri vesti
Ġappren dimento
Ġpra ssi
Ġavversa ri
c elle
Ġevidenzia to
m iamo
Ġapposi ta
Ġrisp ose
Ġimmagina re
ĠIn te
k es
Ġconf usione
Ġesp osti
is tici
Ġconce pi
ĠTra ttato
Ġdi viso
emer genza
pu t
C he
ccid entale
ĠCa mere
Ġ6 7
se i
A I
Ġdi le
ĠS viluppo
ĠM AN
Ġindi ffer
Ġmone ta
Ġad destra
Ġin tre
Ġregistra re
Ġfal so
Ġapprofon dimento
] .
ĠJ an
ĠBel gio
ĠC up
Ġfe cero
Ar chi
Ġdele gazione
u gu
Ġextra comuni
Ġe fficienza
Ġgoverna tore
Ġca ffÃ¨
to la
Ġcol lina
Ġinseri mento
ĠUni one
Ġriven di
ma s
Ġcorri sp
g ona
Ġso tter
Ġripe ti
Ġ________________ _
Ġfin estre
Ġdov ute
Ġriconosci uti
Ġ7 7
Ġtipi ca
Ġver di
acc usa
d os
Ġpen et
gran de
Ġincom pati
Ġappar entemente
Ġparte ci
Ġrichi edono
tto cento
Ġpare te
Ġaffron ta
ĠXI V
ĠS anitÃł
Ġcura to
ĠA T
cc ome
ĠPos ts
Ġmona stero
d f
ni ce
Ġsegna to
Ġsigno ri
Ġa sia
in dennitÃł
ele mento
etta ti
Ġlib r
Ġmar che
ĠO ff
Ġeserci to
sse to
Ġlegisla tive
Ġtutel are
Ġra d
cch ino
av venire
Ġoper anti
Ġinda gine
ĠEn tro
Ġcontin ente
Ġdov ette
Ġ18 0
MEN TI
Ġfis so
ES TA
Ġorgani zzati
Ġdia gnosi
G a
D U
Ġ ente
Ġp r
Ġperce zione
k ata
Ġmala ti
e u
Ġ7 2
Ġmo rali
Ġco dici
Ġurb ana
fi gu
ĠP lay
ĠS ettore
go le
ĠItali ani
ĠM ur
atti vita
Ġsupp l
Ġteo rie
Ġper dite
Ġotten endo
Ġcollo quio
Ġpre detto
Ġacqu isti
ĠEn zo
Ġyo u
Ġimperia le
Ġlum in
Ġcircos tanza
Ġper dono
do cu
Ġalber ghi
Ġuni ti
v anti
Ġdedica ti
ĠPro v
ĠDi fesa
ĠVi cenza
Ġsta vano
mina te
ĠLet tera
Ġadotta te
Ġprof essori
g le
ĠDi ritto
ve cchia
ĠC N
Ġispi rato
Ġmeravi gli
Ġvari ante
Ġcolle gati
Ġester ne
Ġforma li
Ġatti mo
ĠFor ze
Ġsemina rio
Ġdom ina
Ġsemi f
Ġpericolo si
Ġ zi
Ġri cre
Ġre agi
Ġren der
ro r
is sima
Ġ uova
Ġflessi bilitÃł
Ġindividu ato
Ġmira colo
ĠR ut
Ġrinno va
Ġuni ci
ĠRisp oste
no tizie
ĠAssocia zioni
al do
Ġsoprav vis
ĠS ti
Ġpartecip ano
Ġinizia ta
00 00
Ġu di
g lo
Ġta glia
Ġ9 8
ĠMa la
Ġt ono
ĠMedi cina
ĠD ante
Ġinf o
Ġrinuncia re
Ġin fi
ord inanza
ĠGran d
Ġvin colo
ĠEurope o
ĠAl pi
Ġan golo
Ġcapito li
Ġpredisp osizione
col to
ur re
ko v
Ġagg ressi
Ġson no
Ġre mo
TI TU
Ġvio lazioni
Ġven uta
Ġopport una
Ġo cchio
uni cip
Ġlenta mente
Ġdis tribu
Ġille gitti
zz ina
ĠUn der
k k
Ġass unti
ĠBene detto
m ul
py right
Ġru ssa
Ġintegra ta
Ġpron ta
na tura
Ġcolle ttivi
ĠB lo
Ġsa cco
Ġabb a
cc ordo
imp ero
Ġchia mate
Âł mm
Ġscon tri
Ġpa sta
ĠA da
ĠD en
Ġe bbero
Ġe co
f ani
ui ti
so l
ĠI mma
ĠMusi c
ĠP olo
Ġe missioni
ver s
st inesi
Ġgiudizia rio
tri ca
zion ismo
Ġra bbia
Ġlon tana
ĠD r
Ġdol ci
mi li
Ġtemp es
Ġcro ci
Ġosta coli
bb y
Ġ6 3
ĠC ru
ĠCa pp
Ġma gni
Ġpren dono
u gh
os pi
Ġcorre ttamente
Ġconclu sioni
ĠSo li
ce i
Ġma li
Ġdo wnload
Ġcm q
ĠVati cano
Ġad di
T EN
Ġaggiu dica
ĠBu on
Ġp essi
Ġasi lo
Ġassi stere
in telli
indi pendenza
Ġfeli citÃł
vi era
Ġtrova te
ven gono
ĠSette mbre
Ġterri bile
ĠDi ego
Ġcoer ente
Ġul tra
Ġan dati
ĠW W
Ġcogn ome
bal di
imp rov
ĠIns erita
amm issione
Ġghia ccio
Ġos si
g etti
Ġorganizza tive
go glio
Ġri entro
ĠSare bbe
es tensione
Ġdescri ve
gh eria
ĠAl tro
Ġusuf rui
p orta
Ġdo ttore
ĠG ali
ten ne
Ġarre stato
ĠMar k
Ġen trÃ²
ĠE URO
Ġav essero
disciplina re
di bili
Ġri quali
ĠGen naio
Ġte ori
199 5
Ġs la
Ġrispetti ve
ĠC io
Ġavven ne
hi p
Ġpatri monia
Ġstru mentali
gli oni
Ġnote volmente
Ġgi rato
ĠFri uli
si bile
ĠConsi gliere
Ġdo tati
Ġcollo cazione
in er
ĠDe i
Ġeffetti va
Ġp ranzo
Ġintegra le
ĠCCN L
r gli
Ġcommer ci
Ġfran co
ĠF ort
Ġsci ol
p lo
Ġcor ona
Ġsta i
Ġsu onare
Ġappassi onati
ĠMezzo giorno
ĠGiu li
ssi on
Ġmonta gne
Ġpole mica
Ġintelle ttuali
ssa to
ĠVo i
Ġsucc essione
zza tore
sca d
Ġrichie dente
Ġqu inta
Ġesecu tivo
ch en
Ġa mare
bo t
ssi o
Ġsco pri
Ġenti tÃł
ĠCampi onato
Ġven a
s era
s cu
accer tamento
Ġpa gato
L U
Ġpar ente
Ġpos tale
ter ie
lo sa
Ġoccupa to
H A
ĠJ ul
Ġindividu a
Ġpa tente
Ġgi rare
ĠE conomia
Ġ196 6
fi ce
Ġven duto
Ġani me
so li
Ġcolle gia
ĠIn dia
Ġclini ca
U A
e cce
ck et
Ġman da
ller anza
Ġ9 7
Ġtrib Ã¹
Ġprof essor
ĠM ore
fini to
c essione
Ġgio i
Ġpreci samente
ĠNove mbre
Ġmedie vale
m usi
it z
Ġal tezza
Ġamm issione
Ġgiovani li
Ġdidatti ci
Ġturi stico
Ġ19 39
Ġde fici
Ġespre sse
l gs
TO RI
ĠMaggio re
Ġacc umu
ade mpi
Ġinforma tico
a mministra
Ġne w
Ġappari re
ĠMar y
qui la
in vito
ĠS ia
Ġtenta re
ĠCer ca
om ba
ĠPar k
Ġaccogli enza
Ġfo glio
ur s
ĠV IA
ol ino
Ġsegu ono
Ġcom mis
i talia
Ġre sidente
ĠA sia
Ġpo ca
Ġcomp enso
Ġmar chi
Ġsegna la
Ġtratta va
Ġmede sime
Ġ9 9
et u
di ge
Ġrilascia ta
Ġriporta ti
Ġpreve deva
Ġobbliga torio
ĠFranc esca
Ġrip ortare
Ġimp on
Ġre azioni
ĠSmi th
ĠGugli elmo
ĠTu ri
pag anda
ĠGre en
ES I
Ġ196 3
A t
ĠGuar dia
Ġcontra pp
ĠT ru
Ġtenta to
ĠVen erdÙī
ra do
Ġripren de
3 00
Ġterres tre
Ġri sie
Ġpoesi e
Ġperio dica
ani mo
ĠTomma so
a pposi
Ġp isto
200 6
Ġsignifica tive
Ġfu tura
cili azione
C h
ĠQu attro
Ġosserva to
Ġmino ranza
ĠV ER
a mici
ba sti
Ġnecessi ta
Ġsa cro
Ġk g
Ġsali re
ĠXV II
mm et
ĠG all
i ter
ĠCons orzio
Ġcostru zioni
ĠÂ £
ĠSu peri
Ġo ttanta
Ġgravid anza
p ing
Ġforma tiva
Ġquotidi ani
Ġla ddove
Ġe man
Ġ zio
Ġdenomina ta
Ġcomp ensa
ri ci
Ġeffetti vo
a mp
na zionali
Ġconsegu enti
Ġradi cali
m anti
ĠA PP
Ġarti sta
is ci
ron te
Ġrisul tare
v ene
visi bile
Ġ194 8
or n
Ġra mo
Ġrivol ge
Ġaccade mico
Ġorigina ria
Ġbigli etto
Ġcinemato grafiche
ĠB eni
Ġspor tivi
ĠV III
Ġdia gnos
ven na
Ġimmedia to
ru zzo
Ġpal co
ĠWal ter
ĠW ol
Ġsov rano
Ġcatto lico
dro me
ĠCostan tino
Ġmo ri
Ġusa te
Ġrapi do
Ġadempi menti
Ġliqui dazione
Ġutili tÃł
Ġinter media
Ġris orsa
ĠEmanu ele
Ġsti a
ĠG ru
Ġ9 6
e vi
Ġinca rica
lib ro
Ġderiv ante
Ġj u
Ġsena tori
ran ee
tan ea
l oni
Ġis tanze
Ġra dia
ar resto
Ġmar gine
te o
tera pia
Ġde bi
Ġin dennitÃł
Ġall enatore
Ġcir colo
ĠTh read
Ġpericolo so
a mpia
Ġmusul mani
tri co
Ġra ggio
ĠTe mpo
Ġinclu de
ĠCh risti
Ġarchi vi
ĠDo v
Ġfonda mento
ric ulum
Ġspe cchio
Ġdi ssi
AN TE
Ġall u
d arsi
Ġnasc osto
Ġav ente
pp rima
Ġlegisla tivi
V o
ĠF un
sci enza
Ġcol or
Ġagrico la
Ġno tato
ĠNo v
Ġgaranti sce
Ġma ssimi
Ġco gliere
ĠE si
atti vazione
Ġgro ssi
pe a
Ġpilo ti
ĠDEC RE
Ġstrani ere
ĠMar ino
Ġbiso gn
Ġgui dato
B ER
Ġb orse
gh er
Ġrafforza re
Ġ196 2
Ġcata lo
li ber
turi smo
Ġ194 2
ter ina
gh anistan
Ġela bora
b ell
appren dimento
Ġrile vare
Ġprescin dere
Ġb ere
g ru
ĠNatura lmente
Ġcon durre
c fr
Ġestra tto
v ini
Ġ196 4
Ġbos co
Ġpresta to
Ġcomp rare
Ġraggru ppa
de mocra
Ġti more
ĠR el
Ġja zz
f ere
ĠCa tto
ĠM ia
ĠEr n
Ġorgani co
bo ard
Ġscritto ri
ĠCa ssazione
Ġsacerdo te
199 4
re gi
Ġ _
Ġpen i
Ġris ulti
ĠBa tta
Ġla va
EL A
la t
ĠP ossi
ĠRi ten
ĠSal erno
Ġconta bile
Ġcolle gato
Ù Ĳ
ĠAus tralia
Ġrifle ssioni
vang eli
Ġinteressa ta
Ġca riche
Ġoff rono
met ter
ĠMusi ca
Ġsosp etto
ĠPo co
Ġtrasforma re
Ġra mi
era i
Ġdiver tente
Ġelettri co
ĠB ran
Ġrichia ma
tter i
4 00
ca mera
G u
ĠGI OR
Ġaltro ve
a ggiornamento
V EN
b s
ĠV el
Ġprop osti
ĠCom mento
Ġricev ette
% ),
Ġconsuma tore
Ġcine si
Ġautori zzazioni
zia menti
ĠR es
ĠS he
v y
Ġasse gna
Ġdiffici lmente
ĠMona co
Ġma tu
G IA
Ġcom me
In dia
Ġpol vere
Ġin ol
Ġsc ompa
Ġatt in
le ttino
Ġmostra re
Ġdisp osti
Ġtelecom unicazioni
Ġs cato
Ġen ormi
Ġarg omenta
Ġsi mu
Ġsig la
Ġvesco vi
Ġtri ennale
al ba
Ġbritan nica
Ġconsegui mento
Ġver sante
ĠBa sta
t ona
ba bilmente
Ġvaria bili
Ġatti vare
tri o
Ar te
Ġsom mer
Ġris ve
ĠGiu di
oni bile
Ġesclu so
d esse
u k
ĠD y
Ġa le
Ġacc enna
Ġri lan
Ġva rio
Ġfavore voli
ĠOv viamente
Ġstabili ta
T ML
TA ZIONE
Ġannu almente
ĠA rea
Ġedi toriale
Ġ194 1
Ġri un
Ġre pli
Ġregistra ti
ster Ãł
e conomi
an sa
d oni
d et
Ġdiam etro
di enti
Ġma gia
Ġstra na
Ġmis si
Ġorg anismo
ĠG enti
ĠCin que
Ġacc use
Ġges tore
Ġqu ante
Ġsperi menta
ĠCons ul
Ġin ga
Ġli ti
Ġpra ti
men ts
Ġantici po
ĠE mer
Ġlon tani
Ġopera to
ga zine
Ġsceneggia tura
Ġattu are
Ġtratta re
> "
Ġuni taria
vali eri
Ġaveva mo
Ġacquisi to
Ġinvi tato
Ġcomp osti
Ġintelli gente
Ġsosp eso
et tura
Ġfuggi re
C D
Ġm anti
Ġampi e
Ġ194 0
ĠFe bbraio
u ch
Ġforma tive
Ġcri minali
ter ni
ZI ONALE
ĠTra sp
Ġeserci ta
ĠE se
tra to
Ġdopo guerra
stin ese
ĠCON S
Ġcolp isce
bo la
Ġca us
ĠBor go
b la
Ġf ul
Ġc essione
pa citÃł
qu ale
Ġre parto
Ġper plessi
ĠPrin ci
Ġcatte drale
ĠR ossa
Ġcrona ca
Ġvir tu
Ġcinemato grafica
Ġsche mi
uo co
ĠCon tra
c ing
Ġtrasp orta
ĠZ i
ĠVal utazione
ĠV AL
Ġproc ess
Ġripro du
Ġser ra
TI VA
Ġ11 7
ĠEl ena
zi ani
Ġfar ne
Ġagri colo
g arsi
mon d
Ġemen damento
Ġtri ennio
ĠLa bora
Ġ( +
Ġ7 9
Ġper formance
ran to
Ġsu fficienti
Ġar co
Ġcres ci
Ġsopravvi venza
du s
etti amo
Ġfed ele
Ġusc Ã¬
Ġvalori zzare
Ġvilla ggi
ĠFerdin ando
Ġinca ricato
ĠFi orentina
Ġt ron
Ġcol onn
et na
ĠSi gno
ZZ O
p Ãł
Ġspie gazione
Ġavver te
Ġpro ssime
Ġba ck
for za
Ġmusi che
Ġpen sando
ĠCi vile
Ġna so
Ġb ran
Ġsali ta
Ġrece pi
arti gianato
st one
ĠCh allen
.... ...
ĠFabri zio
ĠDis posizioni
Ġcomuni tari
Ġpre venire
Ġrivol gersi
Ġri de
ĠGa ri
EN A
ĠD elib
Ġpeda go
Ġsvilu ppi
Ġcor se
ĠJ er
Ġmul tina
Ġstrani era
Ġfoto grafie
Ġstrate gica
Ġsc ende
Ġpelle g
Ġprepa rare
Ġecce zionale
ten i
Ġcompeti tivitÃł
ĠGuar da
cell ona
Ġdiven uto
Ġsfru tta
Ġlimi tare
Ġflo tta
Ġameric ane
olo go
Ġade sione
Ġinseri te
Ġfarma co
ĠIn diri
Ġpale stinesi
Ġperm essi
Ġdip inti
Ġinclu so
A zienda
Ġele vati
ci le
Ġs menti
Ġavveni menti
Ġsca ricare
ĠMa g
ani me
Ġ19 50
Ġrifu gio
Ġchi use
at tribuzione
ĠMon ti
av vocato
inten to
Ġadotta ti
Ġpre le
r r
Ġri val
Ġo ut
Ġall ontan
ĠU R
Ġ Ãł
Ġla menta
ĠB ossi
ĠE sa
Ġsc orta
Ġconcor rente
ĠRo cca
Ġfar ci
Ġcomple tare
Ġartifi ciale
Ġnega tivi
Ġcon no
in elli
Ġno di
Ġar mati
Ġfal si
ĠTer esa
Ġera vamo
bo x
Ġw ith
ĠPer chÃ¨
mina litÃł
Ġlar ghe
affer mazione
vor no
men e
ĠE pi
Ġdiffer ente
po i
per ta
Ġcar re
Ġpromuo ve
Ġ8 5
Ġpubbli care
Ġro ttura
Ġma ss
Ġc rono
Ġami ca
O sservatorio
ĠT y
mi lano
er vi
cipa zione
Ġco prire
Ã ´
ĠA la
Ġper duto
Ġmeccani ca
tra verso
ti zzazione
ES E
ĠT anto
Ġdisc esa
ĠV ai
EL E
Ġfi umi
Uni tÃł
c n
ord ino
ar le
Ġorigina riamente
S ta
ĠRe p
Ġbatter ia
Ġmo ra
ĠTre viso
ĠPro filo
al bo
Ġamm issi
Ġc ha
ĠLigu ria
ĠAl fre
Ġpia tti
Ġsop rann
Ġdistingu ere
Ġn et
Ġfre dda
Ġarchite ttura
r ene
Ġs b
v re
Ġcoper tina
Ġtonn ellate
Ġdis ca
Ġcan one
ca pi
stitu te
ho o
Ġsare i
s enza
Ġin car
ĠP esca
Ġdebb ano
Ġpro roga
Ġtalen to
d eter
da sh
Ġtrasfer isce
Ġgesti to
Ġlega mi
ing lese
AN DO
im media
M IS
d t
Ġco di
Ġfemmini li
Ġimp le
vi ol
Ġchia rire
L u
ĠM AG
ĠCON SI
etta no
tec no
Ġprodu ttiva
Ġordina to
Ġbilan ci
Ġabi tazioni
ĠCOM P
Ġassun zioni
Ġmos tre
ve gni
Ġf erito
Ġforni te
Ġevi denti
Ġtro vere
ĠS car
Ġga la
F ICA
b ano
d ing
Ġconso le
ĠS el
ĠCOMUN E
Ġ10 9
ĠCen tri
Ġesi to
ĠB ul
Ġperman enti
Ġt oni
gen io
ĠRut elli
fi cante
ĠPo tre
ĠCa ssa
Ġaff etti
Ġdiver ti
Ġ9 2
gu endo
Ġzucch ero
ri mere
Ġvin ta
Ġruo te
in fo
c un
r ine
ĠFe der
G U
Ġin centra
Ġen tr
Ġis tanza
Ġindi ce
Ġdistur bi
ms g
na zionale
Ġatten tati
Ġacco gliere
ĠT ony
Ġesclu dere
Ġdiff use
b ona
Ġru rale
Ġcostu mi
p es
impre ssione
Ġsensi bile
Ġsva ria
Ġapposi tamente
p ost
Ġconos cono
ĠM IL
T V
C or
Ġinvia ti
Ġh i
Ġada tto
issi mi
Ġsotti le
Ġagevo lazioni
Ġprote tte
cio Ã¨
et y
Ġg ino
ĠSa pienza
ĠG LI
ĠCon ti
Ġca de
Ġfan ci
Ġvisi bili
d b
ura zione
Ġabb assa
Ġe h
es clusione
Âł Âł
E ra
mb u
Ġorganizza tivo
Ġin to
ut Ã²
Ġa sciu
f eo
Ġ6 9
Ġreli gioni
ĠI eri
ssa re
ĠAL LE
Ġgover n
Ġveloce mente
I s
Ġsemina ri
ĠHar ry
ĠVi si
ĠA ggiun
Ġabi tato
Ġri dere
Ġp ann
dente mente
ĠP OS
Ġta ssi
Ġusci te
in cia
Ġf lui
tt one
Ġ195 6
Ġmos se
Ġconvo cazione
gn ando
Or gani
qu al
Ġstrate gico
Ġfar la
Ġcaratteri zza
Ġdire i
w an
Ġatten to
Ġba ra
Ġesa u
Ġcontinu ato
Ġ8 7
Ġconquis tare
u le
Ġs orti
Ġs omi
zia mo
âĢ¦âĢ¦âĢ¦âĢ¦ âĢ¦âĢ¦âĢ¦âĢ¦
Ġgratui tamente
v elo
Ġinterpre tare
Ġsin tomi
Ġeste so
Ġ196 1
zi ana
Ġstra ti
il ler
Ġcollabora tore
Ġripre so
ĠC GIL
Ġorgani ca
Ġaffron tato
Ġiscri zioni
Ġfol la
Ġau si
ori entamento
ĠM unicip
in fer
Ġcom messo
ĠL ar
archite tto
Ġconclu sa
ĠS ONO
Ġstruttura le
Ġgeo grafica
ĠCine ma
C IO
ĠA SS
Ġdiv ina
Ġesten sione
Ġoma ggio
Ġco a
Ġener gie
ĠC U
ĠLe e
ri ti
stica mente
di zionale
ĠGen er
Ġgrande zza
Ġinsedia menti
h ard
vis mo
Ġp etto
Ġ195 7
Ġconsi glia
ne a
Ġcanti ere
Ġsud detto
insta llazione
Ġpa cchetto
Ġstra ge
ron ia
Ġinfer mi
Ġbi ennio
ĠSh ar
ĠSad dam
Ġpresupp osti
ĠOs car
ĠRe gia
si stenza
ĠCa sti
cir ca
Ġindividu ate
Ġprom essa
es or
% ).
Ġre cla
Ġdomici lio
Ġpreventi va
Ġsa bbia
Ġforma zioni
Ġp se
ĠChia ra
Ġapposi ti
Ġfal sa
Ġrivol te
Ġcol pevole
Ġsal uti
a mi
A rea
Ġcontra stare
Ġautori zzati
ĠRA I
ĠAn cona
d ossa
a veva
Ġann ulla
ĠPorto gallo
Ġpro paganda
ĠM INIS
Ġalle gati
fa sci
ĠQu ale
era ri
lan desi
ĠM AS
Ġdimenti cato
mar ca
v d
ES SI
Ġcon gresso
Ġpar chi
Ġinforma tici
imp rendi
Ġruo ta
Ġeffettu a
ĠB ell
Ġsen tenze
Ġma fi
Ġfunziona rio
Ġcessa zione
Ġforma ti
, "
ĠC d
a ere
Ġriporta te
Ġsacri ficio
ĠPa ci
Ġann unci
d ele
Ġatten dere
en z
Ġaver lo
Ġassisti to
Ġgu a
Ġva cc
ĠChi e
Ġ8 1
an ello
Ġvin cendo
Ġespre ssioni
Ġde man
pre ssi
Ġes tera
ĠP art
cer ti
Ġopp osto
au la
Ġinten si
ĠS ani
ĠPre f
ĠDice mbre
ĠSi g
Ġstati stiche
ero gazione
ĠA ustria
Ġdiff usi
Ġfe con
Ġconten enti
ĠG ine
in con
Ġbelli ssimo
ĠSp or
Ġcosid detti
Ġ1 01
Ġsta bil
Ġdisp osta
Ġconvi venza
ĠP enso
Ġad dosso
Ġpartecip Ã²
ĠCu ba
u da
Ġs vanta
Ġom osess
Ġdia be
ĠSa m
Ġir ra
ĠB ona
F O
or bita
Ġassi stente
ĠBatti sta
ĠGio vedÙī
Ġdiscri minazione
Ġca ritÃł
Ġmani po
ca mere
T a
sso lini
Ġfir me
Ġ7 8
Ġben zina
Ä «
N egli
ro lo
Ġpri gione
VER SI
Ġfer mare
tori ca
Ġcor ro
ons or
AN NO
Ġgro ssa
Ġag ente
Ġrep lica
Ġm usei
Ġavanza te
Ġs h
Ġadegua ti
ggi ando
ĠBa mb
ES TO
Ġcompi mento
ene ws
ĠB O
ws er
detta glio
Ġe gi
Ġno do
g uo
R C
Ġmostra no
ĠDa i
k en
Ġu sano
Ġaffa scin
ĠSi r
di gi
ĠSch ool
Ġprodu ttivi
Ġner v
ov est
ĠU e
cultura le
z one
Ġdeca denza
h r
M en
ĠP si
Ġvice versa
Ġinteg rante
Ġsfru ttare
Ġinten zioni
rere bbe
c f
Ġcar enza
Ġnasc ere
Ġch issÃł
ĠSi curezza
Ġbra vo
O n
Ġ7 4
Ġmal grado
Ġav vio
T or
ĠP om
Ġconfer enze
in vio
ina te
Ġfa scino
Ġa boli
ri ch
Ġcapi ta
Ġra ddo
Ġesi stere
Ġgall eria
Ġchia re
fon so
ĠB I
ĠGi ord
Ġarri vando
c ena
ĠT O
modu les
Ġgiappone si
Ġtrova ti
ne si
Ġpri vi
g ol
ĠQual che
Ġmagistra to
Ġoccup ano
Ġrin via
Ġle s
ĠO ttobre
Ġlo gi
Ġutili zzano
gra fe
ĠÂ ł
Ġdedica te
Ġvo tazioni
Ġparche ggio
Ġdata base
ĠMarc ello
Ġinter viene
Ġlib erale
ade sione
Ġ195 8
G H
Ġann uali
EN D
Ġintro duce
Ġconta dini
e tano
Ġsc en
Ġprossimi tÃł
Ġfunziona re
Ġimpe gnata
ĠF is
Ġconten i
Ġdiven ire
ĠJose ph
Ġspa ziale
indi vid
ĠCal cio
ĠGI U
ĠNapole one
ĠRa y
' :
Ġcostitui ti
ĠF lo
Ġesegui ta
b are
ĠG over
Ġautori zzata
ĠA gli
Ġascol to
------------ ---
uo vere
Ġprepa rato
Ġlasci ano
s how
ci e
Ġara bo
ĠTec no
sta zioni
Ġuniversi taria
logi ci
in tenzione
Ġdisc orsi
Ġbelli ssima
Ġdistru ggere
Ġda pprima
Ġ- ----------------
Ġelabo rati
ĠCen ter
Ġbici cle
ĠCia mpi
Ġprima rio
ĠBa ssi
Ġnega tiva
Ġm enta
ĠResponsa bile
Ġ7 3
Ġprovo cato
ĠEs teri
Ġta vole
Ġturi stica
ĠMo vimento
Ġpeni tenzia
Ġsp inge
en tela
Ġs anta
ĠRoy al
Ġsoli tudine
b etta
C os
Ġ11 0
Ġistitu ita
Ġvertica le
6 00
Ġb la
to si
Ġraggiun se
Ġs vizz
den ni
r di
sc el
Ġ7 00
Ġfra si
ĠDis co
Ġpredisp osto
Ġmodifica ta
Ġdipen denza
Ġdele gati
Ġpiace vole
ggi ante
Ġsvol ti
ro samente
ĠO rig
tta ri
I d
Ġparla mento
ttan ti
ĠGian carlo
Ġterrori sti
Ġdormi re
Ġriten uta
Ġmetter si
Ġmanti ene
Ġinten so
Ġcollabo rare
ga tori
Ġelabo rato
tt Ã²
ĠSER VI
os ser
Ġtra scri
Ġ--------------------------------- --------------------------------
Ġoff ri
inci dente
c etti
ĠBi anca
ĠLu cia
cc ante
ki e
Ġvita le
ĠDECRE TO
te ch
Ġagrico li
AR O
Ġringra zio
Ġlegg ero
Ġ9 3
Ġdire ttivo
Ġvol ere
Ġpatolo gie
Ġav vocato
Ġinclu si
pre ss
Ġcausa to
ra y
Ġesplici tamente
Ġpubblica te
tando si
Ġdiffon dere
Ġfra gi
ta il
Ġmu tu
da e
Ġucci si
atte sa
Ġirre gola
ET TA
ĠCa ri
Ġesa g
Ġrespi ro
lo cu
Ġrientra re
Ġinvia ta
Ġo ccu
Ġdesid eri
ĠH ome
enti eri
Ġspeciali tÃł
Ġdiscu ssioni
e fficienza
ĠHen ry
Ġtelevisi ve
" ?
Ġcon versa
Ġre pubblica
Ġprom ossa
Ġe fficiente
Ġdeci sivo
sta rt
Ġcon vento
qu anto
ĠN ato
Ġoccupa ti
n es
ĠS AL
Ġriquali ficazione
Ġsempli ficazione
ĠFre e
imp ossi
Ġsicu ri
A ustria
Ġugu almente
Ġinqu ie
Ġda tori
fo ro
Ġsopravvis s
Ġte s
' t
in ese
Ġimp orti
Ġprogressi vamente
ĠBar cellona
ĠSa vo
Ġavven tura
equi librio
Ġconsegui re
Ġs m
ĠR osso
Ġaf ri
olo gi
ta lo
ĠGabri ele
Ġstabili mento
ĠAn no
Ġpreci se
Ġsper anze
Ġgra fico
Ġsca le
omb ardi
Ġconserva to
Ġospi tare
Ġdistru tto
Ġur gente
ma ggio
S tati
ne w
Ġper venire
ĠLi vorno
ĠVer gine
Ġfed erazione
Ġmatu ritÃł
Ġritorna re
Ġfasci sta
Ġgaranti to
le tamento
Ġ Å
Ġaccer tamento
ĠMer coledÙī
Ġ< <
Ġsupp orta
S p
Ġuni tamente
Ġom bre
Ġsosten gono
ton ia
ĠMar tedÙī
Ġsegna lazione
ĠFo to
d eri
Ass essore
Ġpla stica
s an
Ġdi cio
Ġconsi stenza
Ġrivel ato
Ġtraccia to
Ġla terali
stu almente
ĠPa ss
Ġoffer ti
tun io
ĠSegre teria
Ġass unzione
ĠCon serva
Ġpensi on
Ġmemo ri
assi cu
N i
Ġospi te
X I
ĠT OR
Ġtro ppi
ĠCi tazione
Ġro ssi
app alto
Ġim men
ĠS per
Ġimp os
Ġesperi menti
mi l
Ġaccer tamenti
ĠO G
ho tel
inge gn
el fare
ĠAmministra zioni
Ġcom andi
ĠR enato
individ uo
Ġmuo versi
u g
Ġp le
ĠA ssemblea
Ġindividu azione
9 00
Ġpre zioso
inse gnante
Ġli ve
Ġado zione
Ġcri minalitÃł
i mmo
sla m
Ġgui dare
Ġfinali zzato
Ġcur riculum
qu ando
ĠDi gi
ĠTea m
Ġcons en
Ġpre vio
qu attro
? ".
Ġtor ri
Ġver bali
Ġmesti ere
Ġsp era
Ġbril lante
Ġdom inante
Ġri sta
Ġregi stri
Ġma fia
Ġpor terÃł
ĠCla ssi
Ġfacili tare
ĠRi mini
Ġcoordina tore
Ġopera tore
Ġb r
di pen
Ġfisi ci
Ã¡ n
Ġpass ano
Ġun dici
Ġpubbli cita
ĠS AN
Ġcoper to
Ġdistin ti
ĠB ella
Ġinse gui
Ġfo reste
Ġara bi
Ġlo go
Ġber sa
Ġpresid enti
Ġpsi chi
Ġfa ranno
Ġal trui
Ġto mba
Ġmor bi
Ġtele matica
Ġste sura
Ġsce glie
P u
ĠPa via
Ġcondi visione
ĠCara binieri
p si
Ġma lato
ri ty
ĠRe al
ĠA nali
Ġa mato
ĠGiov ani
Ġtra mon
Al to
Ġmonu mento
A mbiente
affi damento
fa zione
gre gazione
m el
ca go
bli c
Ġma cro
ĠQual cuno
do po
d get
Ġsepa rati
c ela
Ġag ricoltura
ĠG h
ĠPon ti
Ġf erie
Ġman dare
ĠMa estro
Ġ194 7
Ġbar riere
Ġma estri
Ġdescri vere
fi sica
sci enti
Ġmer ce
Ġapparten gono
Ġrice vimento
ĠM AT
ha ha
Ġo tta
va res
aaaa aaaa
d an
Ġbor go
to l
ver na
ĠI scritto
all y
v ese
Ġdichia rare
ĠAg osto
om etro
ĠF ur
Ġimprovvisa mente
Ġspesso re
Ġlettera ria
Ġsposa to
S al
pa re
________ ____
M ENTE
Ġden sitÃł
ĠSp ero
li sta
ĠCompa gnia
is t
Ġs ho
Ġpa ttu
A sia
Ġporta ti
Ġmedia zione
Ġ195 9
Ġsalva guar
der na
AR IA
OR D
ĠSal ute
ED E
tero ide
Ġe so
Ġesp ansione
c tu
Ġpen isola
Ġsistema zione
p lica
Ġlimita tamente
d ana
Ġfasci smo
Ġincre dibile
ĠS ky
aper to
Ġcoinvol gere
Ġindivid uo
Ġre quisito
Ġscel ti
Ġ7 1
so re
Ġdimostra no
equi pa
ca t
Ġconcre te
ĠRom ani
Ġs qu
Ġaccusa to
Ġpi etre
Ġtrova ta
Ġascol ta
Ġan date
Ġincor po
Ġci tati
" >
ĠAv viso
Ġimp orre
Ġtrasfer Ã¬
Ġra zionale
Ġporta voce
Ġcentro destra
Ġs tor
Ġtrasforma to
ĠSp esso
Ġe ppure
ĠF anta
Ġpossibili ta
ĠCon ta
Ġaccre di
Ġattribui ta
Ġpo tra
lo tto
g ranti
Ġindi cano
ti me
ĠIstitu ti
Ġdis tanze
Ġriporta ta
Ġin vio
ĠP ren
p isce
Z O
ura re
Ġspos Ã²
Ġpar l
sk et
Ġappare cchia
Ġconten gono
xxxx xxxx
Ġfiloso fo
ĠGian franco
Ġidenti ficare
Ġimp osto
Ġdin anzi
h ttp
ĠPU BBLI
Ġpreci sato
uni or
ĠCol la
ĠLo ve
d ero
Ġintro dotta
t eli
Ġestre mi
Ġconquis tato
Ġlacri me
IN G
al bero
Ġprodo tte
Ġreper torio
Ġfissa ta
Ġca ttivo
ossi er
FOR MA
Ġ194 6
Ġlettera rio
ĠLou is
Ġto gliere
onda ta
ĠSci enti
ĠV ar
Ġsostitu ite
Ġme zz
ĠUni co
ĠT esta
mi r
fer ia
Ġdi ta
ĠLiber tÃł
un ce
ĠMa tt
Ġho tel
Ġvisi bilitÃł
Ġauto matico
ĠPhi li
ca ri
ĠTe x
ĠZ u
ĠV angelo
Ġdistin te
Ġfor mano
avven tura
Ġpazi enza
Ġconserva re
in es
Ġdocumenta rio
Ġviol enta
Ġa to
Ġsociali sta
ĠBe h
Ġradio f
Ġtess uti
cos titu
Ġinten dere
Ġglo ria
Ġini ziali
Ġdeli mi
ĠCore a
ĠPro du
Ġ3 50
Ġcoopera tiva
Ġlie ve
Ġavven ture
Ġgratu ita
n era
Ġpoten ziamento
Ġcreati vitÃł
ĠIn gegn
^ ^
Ġ195 5
essi on
Ġappli cato
ĠPRO V
Ġav vocati
Ġsemb rare
Ġg on
n dash
Ġequi lib
Ġve da
O ltre
Ġdiver timento
atti vo
ĠSegna la
Ġcolloca mento
Ġmen u
Ġvice presidente
ĠPre v
Ġinforma tivi
Ġra cchi
T S
Ġfissa ti
Ġbi ologica
ĠG alli
Ġgiusta mente
Ġadegua tamente
ĠIndiri zzo
P L
Ġsviluppa ta
ĠLaure a
Ġauto bus
ĠPer ci
ph y
ggi mento
con osci
Ġli tur
Ġcimi tero
pa to
Ġtran sizione
orig inale
Ġspontan ea
Ġriusc endo
ge va
oss ono
Ġde cina
Ġcura re
Ġatti ene
Ġtras missioni
Ġ9 4
ĠTer zo
Ġcircos cri
cca te
Ġfeli ci
Ã¨ re
ca ra
av an
ĠRom ania
p orto
ĠLa go
Ġutili zzazione
E st
a sc
AR D
T Ûģ
Ġappunta menti
Ġar ci
Ġ( ...)
ĠMo ro
Ġsuper sti
ch ini
Ġov vio
M MA
erci to
Ġ ki
Ġven isse
Ġto ssi
inva sione
Ġriten gono
ĠPos tato
Ġs n
che zza
ĠAr gentina
ĠManto va
Ġta belle
Ġesclusi vo
Ġcan oni
la usi
Ġallo ggi
======== ========
Ġfum etto
Ġatte so
ĠInforma zioni
Ġman sioni
Ġag ro
ĠBi anco
ĠD OM
C U
ĠV es
Ġpa tro
Ġ9 1
ĠCommissa rio
ĠGro sseto
ĠSub ject
li st
Ġindustri e
er rore
Ġli ceo
Ġter rore
Ġj o
Ġero i
Ġconsul tare
Ġanali zzare
cu ssioni
Ġm es
Ġricor dano
bo lo
Ġdi mora
s ette
Ġos sa
P PO
ĠA mbi
Ġcerti ficati
est ini
Ġdi la
ĠG on
ĠCon clu
ran ze
ĠO ppure
Ġb ea
Ġc lo
Ġgiuri diche
199 2
s ar
ĠFranci sco
Ġscanda lo
u lo
Ġtran sa
Ġprocura tore
amm ontare
Â°Â°Â°Â° Â°Â°Â°Â°
r uo
Ġsp in
ĠMora tti
Ġricev uta
Ġm q
Ġ10 4
oo t
Ġconta bili
ĠGari baldi
Ġbi anche
Ġe mail
Ġper pet
al di
ĠSuperi ore
Ġcapo lavoro
Ġvo cazione
ing s
Ġvo li
Ġri lievi
sid enti
Ġaff etto
pp ato
ĠO no
Ġsess uali
ĠG estione
o ut
ck s
Ġfu ture
Ġuni tario
at trice
Ġrespi ra
Ġpu ri
osser vanza
le ss
Ġletter almente
l ero
bb a
R IS
col le
RE A
ann es
Ġextracomuni tari
Ġau menti
Ġpsicolo gia
Ġsvol gerÃł
P OS
ĠM ostra
ven tÃ¹
po ri
Ġtrasferi menti
O pera
p x
ĠE vi
ĠH A
Ø µ
Ġdi eta
g anza
Ġfar mi
unta mento
Ġri ga
Ġ13 0
Ġspa ra
ĠCon vegno
Ġpercen tuali
T h
loso fia
Ġpen sano
Ġcusto dia
r Ã©
Ġfor malmente
Ġcon dotti
Ġebra ica
Ġpar to
Ġinse gnare
fi eld
Ġp ani
ĠSe basti
Ġrile vazione
Ġcomple tato
Ġucci de
ĠDani el
Ġricor si
Ġmanten endo
Ġc enti
Ġpresupp osto
Ġbatta glie
ĠCampi onati
Ġragione vole
stron omia
Ġdi ca
ĠA tene
ĠQu el
T RE
om er
Ġt un
Ġbom be
Ġindi ci
ona zione
Ġconvin cere
ffici entemente
Ġs Ã¨
an ali
Ġcomun isti
ĠO h
ri era
Ġtra guardo
Ġimp ar
gia mo
etta te
ĠD omanda
Ġfinali zzati
ĠSa i
Ġdemocra tici
ĠComuni cazione
Ġader enti
cer to
ĠRif ondazione
li cita
ĠM ul
ĠN UO
di sp
tribui to
Ġal tamente
cia ti
ĠPro ce
Ġf ero
Ġla vor
v ana
osta l
TO RE
Ġaf ric
Ġtrov arsi
ĠAl to
ger s
Ġtras cu
Ġop zioni
ĠCa tegoria
Ġregola mentazione
gra to
cu ssione
p ino
Ġt on
no tizia
Ġconse gnato
Ġpro ro
Ġbom ba
Ġabi ti
Ġporta tori
Ġsmal timento
ĠF RAN
Ġsequ estro
Ġten denze
ĠI struzione
ĠLe gi
Ġ19 38
ali mentazione
Ġcolpi re
Ġdim os
Ġvia le
Ġsubi re
incre mento
ul le
P C
Ġgrave mente
Ġnucle i
bbi so
Ġreda tto
ĠD re
f esto
ĠRe i
Ġ8 9
Ġlancia re
tec nico
du a
gn ese
or um
enti tÃł
Ġattribui re
ĠSu a
Ġpotre mmo
Ġma trice
Ġpreval ente
Organi zzazione
ĠT al
Ġsa pore
Ġci tta
Ġstu pe
lia ritÃł
Ġamm on
so tto
Ġveri fiche
Ġurbanis tica
Z ZI
Å «
au tunno
Ġto ssico
ĠCa mi
imma gina
ĠZ o
ĠLEG GE
sti to
Ġparla va
Ġs no
Ġra ssi
Ġcondi viso
Ġtras mette
Ġau la
omb ardo
Ġstre ss
vares enews
!!!! !
alle anza
des tina
Ġtren t
om onimo
ĠLa tina
Ġinter vis
Ġcan cro
A ra
cer Ãł
Ġsostitu ita
ĠMu ssolini
Ġliqui do
ĠCa terina
ĠCatto lica
tere o
ĠL unedÙī
ĠS cola
Ġartico lato
Ġscio glimento
Ġbo x
Ġbi rra
Ġtor tura
P ar
Ġesp orta
Ġdef in
m un
TO LO
Ġappro vati
ur genza
ĠTi mes
ĠSa v
amm issi
gio vani
Ġges tori
b on
Ġperplessi tÃł
Ġmasch era
Ġa gra
Ġali menta
kis tan
ca de
ĠP ed
ona menti
Ġperio dici
e co
Ġ12 5
Ġinsegna menti
Ġaggi udi
gi un
ĠP in
Ġstipu la
Ġmoder ne
âĢ¦ .
ĠMo da
c ello
Ġinvi tati
Ġchie der
Ġinter iore
n anzi
Ġsor gente
ĠStre et
a ggiun
Ġcolle gate
ĠDe ci
ĠTren tino
Ġpa usa
Ġauto stra
in ando
O ccidente
Ġconosci uti
ttu to
Ġri tratto
Ġsovra pp
mo bile
ĠProto collo
Ġdeli tto
ĠD PR
Ġfa cciano
Ġattribui te
Ġmusici sta
cco li
ĠF lori
b ene
t elo
ĠScri vi
Ġsa ppia
Ġdis tor
Ġtorn Ã²
Ġa ri
Ġpu lizia
fi la
ĠB il
ĠCo ordinamento
Ġcontroversi e
ĠMa s
Ġre pressione
Ġlo cazione
Ġsomministra zione
Ġcor ruzione
si ve
Ġatten ta
ĠGine vra
Ġdisa bilitÃł
Ġc ron
Ġ eri
Ġpren der
A us
Ġlan ci
G N
Ġsa lari
kata web
Ġspa venta
Ġro tazione
Ġabi tazione
Ġaffres chi
Ġterremo to
n uovo
Ġfrui zione
ĠBi g
Ġono ra
Ġfo gli
Ġcon dotte
Ġafferma zioni
Ġgiun se
Ġintito lata
Ġdetermin ante
Ġprof onde
Ġsca rico
Ġchiari menti
ĠG eo
ĠL es
ĠBarba ra
Ġpra tico
Ġpassa te
ven zioni
Ġmar mo
Ġperi feria
A s
y d
Ġrisol to
Ġtrasc or
J o
gre dienti
de vano
Ġfinali zzata
Ġbanca rio
Ale ma
ĠGiu dice
ĠE do
Ġchi usi
a ppo
ĠLa u
Ġpasto rale
Ġac conten
Ġre st
Ġsenti ta
Ġfer mata
u alitÃł
Ġnon no
v ine
Ġdistin gue
Ġcons orzi
E mi
Ġdina miche
for se
Ġricostrui re
Ġposse dere
l ink
Ġposi tive
Ġpi la
Ġri lancio
Ġten dono
Ġtorna ta
atte ggiamento
Ġmi ti
va ri
os co
Ġspo t
Ġconvin ti
ma gne
ĠTra s
Ġqu e
ĠD EGLI
O nu
EN ZE
Ġgiard ini
ĠJa co
Ġaus trali
I TA
Ġris co
zion isti
Ġcatte dra
Ġcomune mente
Ġtempera ture
N ei
D F
Ġce mento
AM ENTO
Ġan diamo
Ġpi ene
bo ok
Ġ195 3
Ġse ggi
ĠF an
Ġm uto
Ġsugger isce
Ġpermet tendo
cine ma
Ġrub rica
Ġprima to
Ġbi ologico
Ġ195 4
Ġsi gi
erona utica
Ġotti ma
In terno
Ġven detta
ĠH ill
Ġmolti pli
ck ey
Ġgiun ti
Ġten ute
# #
Ġc es
ĠAd riano
Ġvesti ti
ĠB is
Ġi sp
esi stente
ĠP AS
Ġquarti eri
Ġri duce
Ġre parti
Ġvi cine
Ġalle gata
Ġg hi
anima le
Ġprog ettato
Ġnorma tivi
Ġfarma ce
Ġgesti sce
Ġaccesso ri
dice simo
ĠM use
ĠO p
Ġtelevisi vi
ĠSavo ia
ĠCan ale
Ġdichia rata
Ġgene tica
Ġnoti fica
Ġro ton
Ġfa bbiso
b eri
ĠCom o
C OM
B u
ĠNi ente
ĠSe a
Ġattribui ti
Ġconvo cato
Do cu
Ġcomple sse
fi li
ĠS tazione
b ul
O ttocento
na te
Ġsan gu
Ġin tui
Ġso f
Ġcolle ttivitÃł
Ġa erop
Ġigi eni
Ġstra to
Ġcostu me
Ġar mato
Ġre f
esa ro
mi da
ĠRe gina
enso ri
Ġpale stinese
Ġtrasforma zioni
tori co
ĠCOM E
su matori
osserva zione
ĠN in
Ġconf eri
Ġesa minare
Ġrivolu ziona
Ġqu er
Ġmar gini
ĠCast ella
Ġlo ca
Ġpersegui re
ga mente
Ġpre messa
zion ista
Ġfrequenta to
Ġesi ti
taria to
Ġincenti vi
Ġvigi li
Ġ8 2
cu tivo
ĠU ffici
Ġispi ra
ro sso
Ġlib retto
ĠCos t
ga zioni
pro f
Ġtratta tiva
p om
Ġenerge tico
Ġindica tori
~ ~
Ġben chÃ©
Ġmetodo logie
Ġimpa rato
uti che
Ġpale se
Ġcoinvol te
ess ante
eri es
Ġspeci fi
y an
Ġga y
on ere
Ġripet ere
Ġri pi
ii ii
ĠChi cago
Ä ĩ
fo ra
Ġre tta
er ba
ina ria
ĠSu pp
met tono
Ġintegra re
al ber
Ġord inanza
Ġbro wser
AN ZA
Ġlu po
gno lo
Ġcres ciuto
U TI
ĠIn fo
Ġga tto
Ġcolonn ello
ĠMi ra
Ġpreci sare
bb o
appro ccio
Ġo landese
Ġsin cera
Roma gna
Ġresid ui
199 3
Ġdom es
Ġfinanzia re
ĠAn ni
o tta
p ur
ga zzi
Ġinizi ano
Ġlegitti mo
Ġbi t
ani mitÃł
OO OO
Ġgiudi care
Ġprovve duto
Ġvo la
LI A
tu almente
c ti
ĠC EN
l one
Ġvali di
ĠJack son
ca mp
Ġinter c
Ġprofi tto
199 0
Ġcri minale
Ġincontra no
ĠGui da
Ġsubordina to
Ġgri gio
ĠF io
Ġlaure ati
vis simo
Ġ: )
Ġentra no
Ġrichia mato
Ġra ramente
Ġingiu sti
Ġfio re
Ġca sal
ur ce
Ġpresti gio
ĠF onte
ĠK m
Ġte ssi
Ġf ren
Ġsve dese
Ġinforma to
Ġtrasc orso
in go
es chi
sta t
Ġbesti a
Ġcorri do
ĠA pr
rin ale
Ã ±
Ġevi tando
Ġesegui ti
Ġgro sse
Ġv iste
v ania
Ġesemp lare
ĠOlimpia di
ut enza
Ġteo rica
ĠAl fonso
Ġcon o
Ġ: :
Ġfi or
Ġspeciali zzata
Ġbru tto
ĠRaffa ele
ĠLe on
Ġfrequ ente
Ġman os
vi co
Ġintro dotte
Ġaggiorna to
Ġrestitu zione
Ġpre detta
Ġqu atto
Ġse dute
ffi ce
ĠF on
Ġval enza
Ġ** *
P rima
ĠU go
re se
ĠCon fer
Ġsu fficientemente
Ġpreci si
Ġsposta mento
Ġpo vera
ĠR an
ĠJ ones
Ġprodu cono
Ġth at
+ +
ĠGa etano
ĠFi glio
Ġse mestre
Ġchia mano
ĠBa sso
Ġtra pi
Ġconta bilitÃł
s hop
Ġp c
s html
Ġes ordi
ĠJo h
al ter
Ġdotto rato
Ġbigli etti
ĠProte zione
ĠS om
me a
tta ti
tt ono
Ġe tiche
ĠF esta
Ġas ten
ĠSpe ciali
vi deo
cen tro
Ġresid enziale
Ġprogressi va
ĠF el
Ġ194 9
Ġsussi stenza
cur sioni
Ġpre go
Ġsetti mo
OR A
Ġscar pe
Ġsegna lato
or s
mina ri
Ġdiv initÃł
stitu zione
Ġpotre i
Ġin tri
Ġchia vi
Ġse c
eli minazione
Ġvesti to
is tanza
Ġta ba
Ġpiacere bbe
Ġdec lino
ĠE gitto
Ġ15 00
ra mi
gosla via
ĠT an
ĠTi to
ĠSan remo
ĠFi r
Ġdina stia
cia te
Ġsplendi da
ĠAt traverso
Ġmas chio
et z
Ġcristi anesimo
Ġricon duci
Ġcostitui te
ĠM ulti
Ġprovo care
ĠE rano
Ġelet trici
Ġore cchie
IC HE
ĠLu ci
urre zione
Ġc land
Ġlo gico
" ...
ta s
ĠF IN
Ġasse gnazione
Ġw eek
Ġ19 36
ĠBro wn
min ando
Ġrit mi
Ġann ul
Ġsp onsor
Ġsp into
min io
Ġav essi
x y
aere o
ent ini
Ġmi ca
Âł cm
Ġinter viste
h el
Ġsequ estra
Ġinevita bilmente
Ġassisti ta
ĠLAVOR O
ĠHol ly
se condo
cchia ta
Ġaere a
ĠV eri
etta colo
Ġprogressi vo
gli enza
Ġdista cco
ĠDa rio
ĠDemocra tici
Ġpref etto
ettato re
Ġsore lle
Ġspet tro
cci ono
Ġte me
Ġth read
Ġri bal
Ġger archi
ĠMol te
Ġ19 33
Ġespri mer
ĠU dine
Ġconfer mare
Ġlasci Ã²
Ġpiano forte
ĠHit ler
F ER
Ġsp ing
Ġnarra tiva
Ġdu ri
ĠA zienda
Ġba cio
Ġristo ranti
Ġelen chi
Ġfir mata
Ġcon viene
ĠK er
i mb
Ġsi gare
ar bi
Ġusufrui re
Ġteo rico
gno li
Ġresp inge
ĠTo k
la ni
Ġalb ero
Ġri ordino
I r
ccia ta
a ver
ell er
ĠEmi lio
Ġdefici t
ch no
ventu s
Ġo dio
Ġeste sa
Ġcompar sa
ra tion
oni mi
Ġacco glie
Ġintra tten
Ġatmos feri
Ġdis tretti
Ġforni ta
Ġlib ere
Ġriba dito
Ġequival ente
Ġs bo
Ġnomina ti
Ġin gen
ĠChallen ger
Ġcor nice
ĠLe cce
ES A
Ġdeten zione
ĠL en
I ni
Ġgiudi cato
ppo la
Ġvolon tario
Ġmos sa
Ġun isce
Ġdeci dono
Ġtempo raneo
Ġimpedi sce
ta in
Ġno zze
Ġaccompa gnata
ĠSu da
y le
sc ere
a p
Ġal z
Ġar mata
Ġsfi de
Ġvie tato
Ġassi ste
ĠTo p
Ġci tare
z ona
Ġinnova zioni
Ġno v
Ġdeli cato
Ġdov eri
ĠC lo
opera tore
Ġaffer mazione
Ġat trice
Ġcata stro
po la
ĠIn g
Ġdestina tari
Ġna tale
Ġfinali zzate
U C
mbascia tore
Ġved rÃł
Ġma x
Ġdis ce
ĠMar te
Ġdispia ce
ĠP lan
Ġaccessi bile
zza tori
Ġrice zione
ĠE ri
ĠIni zia
Ġinse gnato
Ġ19 14
Ġs teri
ĠM etro
Ġ19 30
Ġdisp utato
ĠD alle
Ġinfor tuni
Ġin acc
esi ti
Ġdom esti
Ġapp i
re st
Ġcomp one
Â» ;
B S
Ġsuggeri menti
Ġvari anti
Ġfrequenta re
Ġcompati bili
Ġpa dri
ĠJo e
Ġl ento
ĠG ene
Ġ11 2
Ġcombina zione
a ma
Ġris contro
Ġpare cchi
ĠWillia ms
pa ri
inis ta
z en
Ġ195 1
er ta
etto rato
Ġgiusti fica
ĠMart ini
or chestra
Ġsud detta
tu alitÃł
ccio lo
Ġsta volta
Ġprescri zione
Ġsu ff
Ġinvesti re
Ġscoper te
Ġcor ti
Ġcandida tura
C re
Ġesp oste
en sione
cla ssi
Ġav vol
Ġs is
Ġbu sta
Ġconclu se
Ġdi vide
Ġinf anti
p is
ĠM ino
ĠG A
Ġgenti le
A i
Ġcontempo ranei
Ġdivi sioni
ĠS chi
Ġa tter
ĠC osi
Ġcon vegni
Ġca vo
sta r
Ġcor tile
Ġrive dere
Ù Ĩ
ĠSo vie
ra glio
ĠMon s
Ġsinte ti
Ġdel u
Ġripri stino
abb and
Ġren di
ro ck
ĠD an
Ġcomp or
ali zzazione
ĠCri stina
ĠDani marca
Ġintrapren dere
Ġperi coli
Ġ195 2
ĠDo bbiamo
rin se
ĠLabora torio
ĠBi lancio
ĠRa venna
Ġprofessi oni
ĠM ale
ed erazione
Ġprima rie
Ġstan ze
vi sioni
ĠRo cco
Ġconfer mata
ĠMedi ci
Ġos ci
Ġidenti ficazione
Ġpo tendo
ĠE ro
1 01
Ġcompi e
ĠN orme
Ġgo dere
Ġdif etti
Ġh ome
Ġriconosci ute
Ġf esti
ĠVi gi
du re
Ġpa pÃł
Ġedi trice
Ġcinemato grafico
Ġcondu ttore
edi lizia
gon za
Ġolimpi ci
ĠBu ona
Ġinte se
Ġstupe fa
Ġsi gni
Ġdia rio
B e
Ġmanten uto
Ġtar do
Ġse mia
Ġsco ppia
Ġfres co
ci t
F ra
Ġferi te
Ġve deva
ger anno
Ġinter p
Ġcomposi tore
ori zz
Ġman care
Ġtranquil lo
Ġdiri ge
Ġe tica
Ġcostrui ti
ar ning
ĠP alla
Ġvo ca
inis mo
Ġvol entieri
Ġinter vista
Ġpropor zionale
Ġp ene
c to
Ġconc essioni
quo ta
ĠBu ffy
M an
Ġorganizza te
Ġpreviden ziali
Ġman d
Ġconten to
poli tica
An g
Ġdis tra
ĠS ui
ĠCons ulta
Ġnottu r
Ġlavora tivo
ti l
Ġapplica bile
re vole
Ġaggiun tivo
Ġprote tta
Ġsal tare
ĠLu cio
ci smo
IA LE
Ġfronti ere
Ġmill ennio
tor ino
Ġe ttari
Ġcu cchia
ĠCar ra
Ġa ran
ĠDa y
Ġindispensa bili
Al c
ĠCo dacons
g ga
Ġemana to
u mendo
Ġla tina
Ġsc re
Ġtratta tive
Ġconte sti
appo ggio
Ġaffi damento
s in
Ġavval ersi
Ġdeci sa
Ġsatelli te
________________ ________________
Ġtipi che
Ġcar bu
Ġapp ortate
a ssolu
ĠF eb
Ġp anni
Ġvigi lia
uni ta
Ġconsider ano
ĠIn no
Ġmo zione
X X
Ġnom inale
ĠFinanzia ria
ĠI t
Ġmone te
Ġna scono
Ġstati stica
Ġaggiun tivi
Ġplu rali
ĠGall eria
con n
ĠS ale
Ġpian ura
it ch
g r
E x
Ġsostitu tiva
Ġadegua mento
Ġ ella
Ġin vo
Ġv ani
Ġo pposi
Ġes al
Ġpensa te
Ġsol dato
gno la
Ġpreoccupa zioni
ona ria
Ġdiale tto
ĠGa rante
Ġfedel tÃł
Ġfos si
7 00
ĠD C
ĠT ed
Ġinizi arono
Ġconsider arsi
re sti
Ġba tti
Ġcer chi
Ġillustra to
ĠA TTI
TIC OLO
Ġ19 34
Ġconse gue
ĠIn sieme
ĠA veva
Ġid ra
Ġli tri
e cli
ĠO tto
Ġricor diamo
ĠM us
Ġemer gere
ĠIstitu zioni
Ġba sse
Ġm enti
ĠFi era
Ġaffer mando
Ġtransi to
ĠGiov anna
un ali
Ġpresso chÃ©
Ġsepp ur
Ġp in
Ġpreve dendo
Ġlingu istica
Ġde biti
Ġsp erare
Ġseria mente
utili zzazione
Ġpetro li
Ġele gante
Ġ1 19
Ġsempli citÃł
Ġfabb ri
ĠU il
Ġblo cchi
ĠSand ro
sc etti
Ġcontra sse
ĠLib ro
Ġm uri
Ġprom esse
mar ono
Ġfa una
Ġi mi
Ġconc essa
Ġmod ella
p al
ER CA
Ġo k
Ġappar so
Ġby te
mp er
Ġco ppa
z ar
Ġmos che
Ġla ici
Ġdu plice
b ull
Ġstre tti
Ġam anti
Ġatte ggiamenti
ĠU tili
ĠBo b
Ġrefer ente
Ġcele bri
ĠF ul
ĠF rom
ĠTuri smo
Ġdisciplina ri
Ġinten sitÃł
Ġco d
a cca
ci cli
Ġ8 6
D ire
Ġassicu razione
Ġgen o
a h
in cen
Ġgiuri dici
al terna
E gitto
ĠF ON
tar lo
Ġmina cce
Ġprovviso ria
cura mente
Ġbattu te
Ġcrea tura
Ġval utato
siste ma
men da
ĠPo polare
Ġdar Ãł
B er
Ġlingua ggi
Ġpaga menti
Ġcoinvol ge
a bbiamo
il er
Ġriscal damento
d era
Ġv ela
w ar
Ġsottoscri zione
re e
Ġdesi gnato
Ġpresta re
Ġass ente
Ġri organizzazione
en orme
ani mazione
Ġcontrolla ta
Ġterm inale
ĠMa h
ĠQu asi
gen cy
ĠIngegn eria
ĠR ol
umere voli
Ġrifor ni
ĠCor si
Ġamm ettere
fa ult
ĠAl ta
Ġcompati bile
ĠCa val
ĠCapi tolo
ĠC y
ĠP unto
bb re
p res
Ġapparecchia ture
Ġann uo
Ġtea trali
Ġ8 4
Ġassicu rato
e to
view topic
Ġbe h
ĠTrasp orti
Ġqu esiti
Ġazzur ro
Ġin tu
W S
Ġprodu ttivitÃł
Ġsa cche
Ġpall one
Ġsud detti
ĠSu pre
Ġinterpre tazioni
Ġsovra nitÃł
Ġ19 24
Ġs g
B R
Ġappre zzato
Ġpre co
gli eria
Ġsp on
r c
s tan
Ġintelli genza
Ġl Ã¬
Ġstipen dio
ĠTU TTI
Ġcomp en
Ġgiov anis
s os
si to
zi ando
ĠSco tt
Ġcon duzione
Ġfonda menta
Ġsosteni tori
Archi vio
Ġappro ssima
Ġfram menti
Ġsa ga
m ing
Ġra te
Ġpre messe
Ġri mozione
Ġpriva cy
Ġcontra ri
Ġcontempo raneo
Ġelabo rare
ĠQu a
ĠNo vara
Ġapp alti
BI LE
Ġd ose
G NA
Ġleg alitÃł
ĠTi po
ĠF elice
otti ma
ent Ã²
Ġsopp ressione
ti bile
Ġda va
Ġrappresenta ti
Ġraccon tato
Ġsosten uta
Ġdin torni
Ġprote ine
Ġpre ssioni
ver y
for mi
ann uncia
ron to
Ġcos tretta
Ġcompi uti
eri cor
p g
Ġdo tate
Ġgiusti ficare
T TE
Ġ19 29
E A
ĠC are
a go
Ġrinno vato
Ġal coli
ĠPre mi
Ġcal ma
ĠE cc
Ġpsicolo gico
ĠDi p
Ġe qua
ĠEd ward
ĠS etti
Ġgen io
Ġsolle cita
ĠAu ton
amici zia
Ġcontinu Ã²
Ġabitu dini
ĠAg os
Ġproie zione
ĠH all
ĠVi ttoria
ĠSpe zia
tra s
! ".
Ġsosten ute
Ġanalo go
Ġcollabo rato
Ġcar dio
sso l
Ġcolle gata
Ġedili zio
ĠDu omo
cch ini
zz oni
Ġboni fica
Ġin asp
ĠNess un
Ġsenti ero
ve dere
Ã¼ r
Ġregi o
di ana
A b
ĠCi ttad
Ġpia ciuto
Ġsfuggi re
Ġdramma tica
Ġparall elo
Ġur genza
Ġoccupa ta
M on
Ġven ir
Ġconce dere
tun ato
Ġconc ettu
Ġpo tÃ©
tto li
ĠGro up
ĠLu cca
ccio li
a gente
ĠT A
ĠAugu sto
Ġ19 20
Ġcer chio
Ġsacerdo ti
Ġpre detti
Ġper dendo
Ġsoddisfa tto
Ġalber go
Ġmer canti
ĠPo wer
in de
Ġsenti rsi
Ġorizzon tale
Ġceleb razione
ran gia
Ġposi tivamente
Ġappro vare
ann uncio
Ġro ccia
Ġcamp ani
Ġcancella zione
improv viso
ĠSovie tica
Ġpo lo
Ġsopravvi vere
Ġba ga
tt on
Ġru ssi
esp letamento
Ġcontraddi stin
ĠColle ge
ĠMi ke
cri sti
in n
Ġesclu de
d Ã¬
ĠCa ccia
Ġapposi te
ĠAu toritÃł
ĠD ell
Ġrafforza mento
dd al
ĠDirig ente
Ġri ci
Ġasse gnata
Ġassocia ta
AT TI
201 9
Ġria bilitazione
ĠS ur
Ġvege tali
Ġdef inis
us te
Ġtras messi
Ġsta minali
Ġcompati bilitÃł
esor dio
Ġspagno li
Ġvol le
ĠMon da
ri mento
Ġragi onamento
ĠHo use
m elo
x el
Ġrall enta
pa gina
ĠVir gin
Ġvole sse
Ġguard ando
ana mento
en done
me ccani
Ġfo cali
Ġinver nali
Ġevidenzia re
Ġinter locu
Ġpro li
Ġsotto val
Ġcoordina te
ĠF oot
Ġschi ena
Ġpisto la
Ġnascon de
Ġpeggio re
v Ã²
etti vi
intelli genza
ĠStra da
Ġfi era
w is
el are
Ġesp an
op zione
ĠS erra
Ġn ostal
Ġdeposi ti
Ġcellu lari
Ġtra tte
ven uti
Ġni do
Ġappare cchi
Ġme ga
Ġ11 8
Ġconsid ere
ĠJ ane
se y
Ġce duto
ol ini
ca st
ĠC IA
Ġcons orzio
Ġe tico
ĠI VA
IA MO
Ġra dice
Ġqu esito
ĠK ra
ĠVi to
Ġind ossa
Ġma ster
Ġdire ttori
Ġidone o
ĠMa gi
Ġac quisizione
Ġrifle ssi
Ġreclu tamento
Ġfer mato
du c
Ġrico vero
ĠB oni
ĠBern ard
Ġgra no
ĠTe mp
Ġlimi tazioni
la terale
ĠGran di
Ġang eli
d ona
ĠSi mon
cor re
log y
ĠA merican
Ġd arsi
Ġric etta
ĠDis ney
ĠFa ssino
Ġsoci e
ĠP ossono
p an
feri mento
ĠSte ve
Ġcan tare
Ġslo gan
Ġs tereo
spetti vo
Ġe tichetta
Ġcoper ta
Ġpar lo
ĠUnite d
Ġg la
Ġpaci f
Ġcon i
Ġeccell enza
Ġrifugia ti
Ġpericolo se
ĠAn dr
Ġdia volo
Ġcompro messo
w ei
Ġdemo li
ĠVer de
ĠPO LI
M M
Ġm entali
Ġuni forme
Ġinclu sa
Ġdimin u
tron de
Ġqu inqu
Ġmonu menti
Ġatta ccare
ĠSa b
Ġfi glie
etna m
Ġde pressione
Ġrientra no
Ġvet ture
Ġin fa
Ġcer co
ĠQu ad
ron ta
Ġapprofon dimenti
Ġcar ni
ĠCa valiere
Ġe vangeli
res en
e k
Ġsap endo
Ġritar di
Ġparti celle
Ġsp endere
ĠMa dre
Ġdescri tta
ĠEdi zioni
Ġdebole zza
ĠMe mber
ri ale
Ġlo tte
ia to
Ġindustri a
de vole
Ġ19 23
ĠBi bbia
ĠCa mpa
Ġg om
Ġverifica to
Ġpar liamo
Ġpa tologia
uta ta
Ġentra ti
F C
Ġaccer tare
Ġav vis
Ġca ttiva
ĠT on
p osti
Ġquali fiche
ĠDichia razione
ecce zione
de a
r onica
Ġcio cco
Ġmod eratore
ĠH TML
ru m
Ġasse gnate
ĠP ensa
Ġdi rlo
ĠAng eli
Ġ3 60
Ġfor no
Ġorgani ci
Ġca vi
Ġracc ordo
in ano
Ġrifle tte
ĠLe op
mar gina
Ġvi lle
ver se
Ġpericolo sa
Ġtesti mone
ĠS ali
il li
Ð °
ĠM S
Ġsof istica
gro und
ĠS TU
ĠB elle
Ġatti vato
Ġconting ente
I R
Ġrisa lire
E sp
Ġpri mis
ina udi
ĠConte a
Ġand Ã²
Ġdi va
Ġel o
ĠCh ris
servi zi
Ġg alle
" ".
Ġconsenti ta
atle tica
ĠD ele
Ġcommerciali zzazione
ĠDI RE
Ġma cchia
Ġtri mestre
Ġmin oren
Ġaccen tu
Ġamm ette
Ġpro pa
Ġva pore
zz ese
Ġpor zione
N ato
zi ose
qu azione
ĠChampions hip
Ġal quanto
Ġsoli sta
Ġconte stazione
M AN
ĠQU O
Ġf rom
app untamento
Ġinser isce
tt oni
G ran
ĠCol ombo
appa rato
e mana
ĠP h
Ġsuccesso re
b one
ĠDi ritti
da s
th or
Ġsperi mentali
Ġde co
Ġte ologia
ĠCom ple
ĠSca la
Ġe go
qu ie
Ġra ri
Ġgra tis
Ġsemif inale
Ġintro duzione
Ġinn umerevoli
Ġispi razione
Ġstrada li
Ġp omo
p in
Ġri dotti
ĠElisa betta
ĠCostitu zionale
Ġva mpi
Ġin col
ĠPa ssi
Ġentusia smo
ĠLi vello
Ġriten ute
Ġpass word
Ġporti ere
Ġsp ettatore
Ġsi ccome
Ġse gua
Ġgio cando
Ġpa vimento
Ġs gra
Ġelettr onici
Ġins os
Ġs esta
v ing
Ġgaranti ta
Ġintegra ti
Ġli st
ve gia
Ġse cco
bbi e
Ġmobili tazione
Ġsottop osta
Ġmon ti
M ol
ĠFor mula
Ġora mai
Ġraggiun ta
Ġmeta llo
Ġvin cente
Ġpreval enza
Ġcla mo
cola ta
Ġchie diamo
Ġcann oni
ĠC V
Ġidone e
ĠS cusa
ĠPro babilmente
Ġis tante
Ġimmobili are
p ani
Ġro ba
Ġservi to
ĠÂ §
ĠIn dustri
Ġten gono
Ġriman endo
l eria
cher anno
Ġstan ziamento
Ġcompren dono
Ġinevita bile
ĠG O
ela go
Ġto glie
ĠPale stina
Ġtelef onica
Ġgo la
Ġ- .
ĠF orte
Ġsegna lazioni
Ġg r
Ġass etto
Ġsp alla
Ġsa pi
informa tica
Ġna tali
Ġrifer iscono
Ġsu da
Ġgro tte
ĠAn d
ĠD etta
zzo li
ĠC AL
ĠPar ere
EN T
Ġpan china
orizz onte
la terali
Ġidone a
Ġpun tuale
Ġdecor renza
Ġconcor dato
Ġscri vo
un te
pe i
ĠGa me
Ġfis sare
ĠH y
Al ta
ĠZ el
Ġstru mentale
ĠT ai
Ġmos tro
Ġmetodo logia
Ġquatto r
Ġsub entra
Ġpreviden ziale
Ġall Ã¢
Ġripe to
I sola
Ġistitu ire
Ġsape te
Ġmis to
f en
Ġprote ste
Ġrin tra
ĠTec nico
gori t
ĠBa y
ĠIta ly
Ġmater nitÃł
Ġmal va
Ġe po
Ġscu ro
Ġma ra
ĠLe o
Ġm el
Ġsinda ci
Ġs vel
Ġinvesti to
Ġmar ti
Ġnet work
Ġesten dere
Ġprivile gi
Ġ9 00
Ġautonomi e
Ġvi vente
ĠGIO V
ĠR ia
Ġcos tella
Ġsp unto
ten denza
ĠPrin cip
Ġma terna
Ġw a
ĠD NA
Ġtraspar ente
Ġmi x
ĠLa scia
Ġsuddi viso
Ġcons um
Ġ19 19
app orto
Ġpara metro
ES SO
ĠA mici
bbia mente
men a
ĠS on
Ġinaugu rato
ĠS ho
pa ci
in ente
Ġotten uta
Ġinol tra
Ġcro llo
ar ra
Ġquotidiana mente
ĠDe p
Ġarti stiche
O ri
Ġspecifi citÃł
OR O
Ġporta rono
Ġimba ra
di mensi
Ġmemo rie
ĠP rato
Ġfattura to
TI VO
In terna
ĠGener al
EN TA
un animitÃł
Ġnetta mente
ĠLa vori
Ġarriv Ã²
Ġri fa
sto r
Ġavanza to
con f
Ġfre e
Ġprote tto
Ġogn una
Ġconte stualmente
ĠL ine
Ġgeni tore
Ġatt enti
Ġpre lievo
Ġcircos crizione
Ġlibera re
Ġser eni
Ġmin or
Ġp esa
Ġven de
ĠBla ir
ĠMe ta
ĠSil via
el ink
Ġtra dotto
Ġcompi uta
Ġanzi anitÃł
ĠDI RI
ĠMi r
sk y
Ġfaci litÃł
Ġconta ttare
col li
stra zione
Ġcominci Ã²
Ġban chi
Ġstipu lato
Ġinforma ti
om bi
e vano
c uo
lu sso
Ġcolla na
s tÃł
Ġpala zzi
Ġraggiun ti
Ġb olo
t trici
Ġinten sa
Ġnucle ari
Ġvi venti
Ġs mar
Ġritro vare
Ġdestina re
ĠRis ul
ĠJu ventus
emana zione
Ġcol line
Ġresi stere
spe dale
cu m
Ġsc eno
fo to
ĠB ed
Ġprofu ghi
Ġw ork
AR T
Ġ19 37
Ġto lleranza
tter o
Ġsicili ana
Ġdro ghe
ter nitÃł
Ġro sse
Ġos s
imposta zione
Ġpregiudi zio
Ġcrea ture
Ġai utato
Ġ Ð
mo lo
Ġrecen sione
Ġspeciali zzati
TER O
Ġle tture
Ġfol lia
Ġrivol ti
Ġdov remmo
Ġbu tta
Ġspa ri
mes trale
Ġ //
Ġcura ta
Ġtrasferi re
Ġconsul ente
LI O
Ġindi cando
Ġlegitti ma
Ġth is
Ġregola ritÃł
Ġcompli menti
vol uti
Ġassum ono
Ġadolesc enti
L L
Ġinsi ste
fis so
Ġcomin ciano
esplo sione
ba ti
Ġatti ve
Ġesegui te
ti ta
ĠE bbene
ĠCast elli
Ġconsa pevoli
Ġspe cu
Ġten sioni
met tendo
ci one
Ġmotiva to
d c
Ġmin erali
ĠP esaro
Ġe missione
Ġscon vol
Ġs tro
Ġspecifica mente
ĠGa la
ĠCan di
ma ster
Ġall or
O ra
ĠO sserva
Ġdiventa ti
dom ani
Ġsettiman ali
TO P
Ġcompon gono
ĠP AL
Ġma sse
Ġisla mico
ia li
Ġvicin anze
Ġpia zze
ghe tti
inse gna
ĠUNI VERSI
ni ght
Ġ19 15
Ġcondi vide
Ne w
ĠSi ra
Ġappo ggio
Ġriti ra
re lli
te se
bita t
Ġ8 3
cc oni
impossi bilitÃł
D on
Ġlibr eria
Ġcomporta no
ve i
fi c
Ġaugu ro
fini zione
al tronde
Ġforesta li
guar di
ĠPa gina
Ġmedi che
li mi
ĠVi etnam
ĠB U
Ġpu ramente
Ġtedes che
Ġmedi ter
ĠM eri
Ġesp ro
Ġprincip essa
ĠNet work
viso ri
ĠM r
Ġsoli ti
ĠB AS
Ġrego lazione
Mi lano
ĠP ho
ĠSe bbene
Ġfoto grafica
Ġspeciali zzato
ac elink
Ġfal se
Ġc ella
Ġecce zionali
ĠPAR TE
id s
Ġ19 35
V ene
ma co
Ġpre scel
Ġag on
ĠMon diali
l Ã©
Ġpres erva
ĠFran ce
versa li
Ġfoto gra
Ġritro vato
Ġca duti
I slam
Ġre ttan
er ando
U ZIONE
Ġdisco grafica
Ġesti vo
ĠJ im
ĠA sp
Ġorganizza tivi
ĠMedio evo
Ġdiscu sso
Ġrega lo
Ġori entali
Ġsta ge
Ġce dere
Ġquad rati
Ġbu dget
Ġ16 0
Ġla bbra
Ġmon di
Ġte ste
ĠÂ °
un da
Ġb ul
ĠAr te
Ġassun se
Ġfa cc
ĠDis tretto
ca rio
essi onale
Ġinterven uti
ro se
Ġ19 28
ĠS uo
zz etto
gli er
Ġca re
Ġcri mini
Ġcondi visa
ĠVo le
Ġatta ccato
ĠVe cchio
Ġs y
qu indi
ĠSa ranno
m l
ro tta
Ġinsi gni
versi ta
ĠSal vo
etti ve
assicu razione
Ġcoltiva zione
Ġatti vamente
ch ine
con tri
p ti
For um
inse dia
Ġassi mi
. ".
re tti
go rio
Ġdis tante
Ġamministra tore
av vento
A c
ĠGol fo
ĠRapp orto
z y
Ġasse gnare
Ġin sa
Ġcar dia
ĠBasi licata
bri che
Ġlimi tazione
ĠRi ce
ĠVo glio
Ġter minato
ĠS us
Ġnar razione
ar da
EL L
ĠO ne
onali tÃł
Ġ14 0
Ġaggiorna te
gi bili
Ġpi ombo
Ġris catto
Ġvol uta
or ror
Ġven uti
N ET
mina zioni
Ġorienta menti
inf lazione
ĠP es
ccia ti
Ġpsicolo gica
Ġriba disce
ĠL ord
Ġrinno vamento
Ġno zione
Ġcompi lazione
bi te
Ġsegui ti
udi enza
Ġi mbo
ĠS eries
ĠAli ce
te che
Ġsensa zioni
ĠL ink
Ġ12 7
Ġbasa ti
Ġsu ba
Ġad ia
Ġpare ggio
rando si
Ġfare bbe
Ġcollo cato
Ġintera gi
Ġriten ersi
fa mi
ri de
gior nale
Ġindipen denza
el s
Ġpi eni
Ġvedre mo
o gni
Ġriguar di
ĠAu tori
Ġre di
Ġ19 12
an ge
Ġpermet ter
ĠNor man
Ġma dri
Ġinf e
Ġsp ro
ga ro
Ġpote ssero
Ġregistra ta
Ġs col
Ġeli minato
Ġpresti ti
Ġlarghe zza
Ar ma
Ġalle va
bi ca
ĠA P
Ġti me
ĠCia sc
Ġesi genza
D L
Ġattribu isce
tico li
Ġpensi amo
Ġba ttere
Ġnu do
Ġvole vano
v etta
c Ùī
Ġgiuris dizionale
ĠEu genio
Ġb alla
Ġto po
pu ter
la tion
ma g
20 9
âĤ¬âĢ ľ
g eri
Ġcanc ellare
aggiun ta
ĠHa w
Ġc um
Ġe gu
Ġconf on
Ġpercor rere
ĠBr un
Ġnon na
Ġdistur bo
Ġtrasfer ta
Ġ19 18
Ġanni versario
Ġraggiun gendo
Ġuni te
et ing
Ġri mp
Ġsp en
Ġcostrui te
ĠMa ddal
Ġfasti dio
av anza
Ġcic lismo
ĠVen ne
ĠW EB
Ġfonda tori
Ġstudi oso
ĠRe sistenza
Ġvege tazione
Ġs quali
ch erebbe
Ġasso gg
Ġdi to
Ġtipi camente
Ġau mentato
Ã º
Ġrappresenta tive
Ġins etti
: "
Ġven duti
in cro
ra ce
t ha
di si
Ġco lazione
c essi
mar lo
bo ur
Ġimp o
u ss
GG IO
Ġcolpi ti
Ġrecen sioni
Ġero gazione
Ġta sca
Ġcomplessi vi
Ġper sa
Ġdio ces
Ġ19 27
pre sso
Ġriven dica
Ġele zione
Ġiscri tte
la vori
ĠDa ve
Ġsper iamo
lu g
Ġcaccia tori
li che
Ġco ver
ĠS tone
Ġpro viene
ge o
om an
edi tore
anis tica
ĠFi losofia
Ġla pi
ĠA dige
ĠSa ss
Ġnazionali tÃł
Ġfan teria
ĠPas qua
Ġpote stÃł
acco glienza
Ġodier na
Ġbi an
Ġci bi
Ġser bato
Ġlegg endo
Ġanalo ghe
ĠAlle gato
ĠH ei
Ġecce zioni
ĠD un
ĠG oo
ĠLi ve
Ġacc ura
/ ?
Ġl enti
ĠMili tare
c ene
UN I
Ġferrovia rio
Ġpro vengono
abband ono
w o
ĠSte ph
Ġassisten ziali
ing hi
Ġcana dese
Ġba sti
Ġdi visi
Ġfemm ina
Ġtal uni
allar me
Ġripe te
Ġproblema tica
Ġinn es
Ġ19 31
Ġsussi dia
Ġsotti li
pe o
lo gio
he im
Ġpresenta rsi
Ġpos tu
Ġcomi tati
Ġtor rente
Ġbasi lica
Ġ !!!
Ġtranquilla mente
Ġsco pr
ĠPa ssa
ĠN Ã©
Ġele vate
Ġcontraddi zione
en zi
Ġgo de
as on
Ġci tando
Ġinterven uto
Ġinnova tivi
ĠCis l
sse gna
Ġfos sili
Ġro ma
Ġca valiere
Ġtro ppe
ĠA mbro
) "
ca mpo
ĠHolly wood
ria tico
Ġelettro magne
Ġpatrimonia le
Ġin es
ndo si
Ġcora ggi
Ġno ci
Ġchi mici
n ell
ĠPia cenza
TI CO
Ġcapo gruppo
g by
Ġpolitica mente
is cano
ĠMo to
Ġsare mo
Ġdenuncia to
Ġtemporanea mente
Ġlu sso
Ġo l
Ġcomuni one
us ci
Ġcontribu isce
ĠN ero
so lu
ĠRisp etto
ĠCol omb
' m
ĠRel azione
Ġguardi e
Ġconsa c
Ġvergo gna
Ġle sioni
Ġpo eti
Ġfrequ enze
ĠE conomi
ON U
Ġb inari
ĠJu an
ĠM ED
Ġpi ttori
Ġparrocchia le
Ġimp arti
Ġmor f
ski j
Ġascol tato
Ġradio tele
Ġsu sse
Ġrico gni
Ġfia mme
Ġreca rsi
Ġla c
oren tino
ĠA mbiente
Ġto ll
ĠF ord
lan ta
Ġsen tono
Ġdirig enza
Ġcontribu ente
ĠCi Ã²
atti va
ĠO tti
dol fo
le x
ĠPre ss
Ġstraordina ri
ĠCir colo
Ġa pi
] ,
Ġaggiun te
Ġm y
ĠCon ci
spa zio
ĉ ĉ
identi ficazione
mina rio
Ġtra rre
Ġconsegu entemente
ĠNor vegia
ĠG ino
Ġgen erare
Ã ®
cra ina
Ġad detto
Ġautori zza
ĠM ura
ĠChristi an
equipa ggio
Ġdiven terÃł
ĠRo ber
Ġdistribui ti
mm er
Ã ª
Ġsottop orre
investi mento
ĠV EN
Ġro vina
Ġp iste
f ore
Ġca zzo
ĠRi ta
Ġrin chi
ali smo
avan guardia
ĠMa da
I V
Ġscar so
ĠG ard
za re
E conomia
Ġsa pre
enn is
Ġimpe gnate
Ġimprendi toriale
ga tore
ĠPi erre
Ġporta te
Ġco pri
um an
Ġprom esso
and ro
ĠCre mona
ugu razione
der la
mble e
Ġaggiorna ta
Ġblo ccare
Ġvali de
Ġ omicidio
Ġgoverna re
Ġ19 17
Ġgu sti
Ġpos teriori
te sti
ĠTer me
Ġlaure ato
Ġvideogio chi
ĠCom ando
ui tÃł
ĠIN D
e m
Ġsin drome
Ġline are
ĠTi me
ĠK oso
Ġna vale
ass etto
Ġpre ziosi
ĠIn stitute
Ġfar gli
is so
Ġeduca tiva
ĠEsi stono
Ġinforma re
ĠS quad
Ġtu more
Ġimposta zione
Ġformu lare
Ġra re
ĠH O
Ġb aller
ĠO ut
ĠBatta glia
Ġsca rsi
ando lo
Es ercito
Ġsu scetti
Ġsepa rata
ĠAnali si
Ġfer mi
ĠAN D
199 1
aff ari
Ġcol li
Ġcorrispon dere
Ġsport ello
Ġmos tri
Ass essorato
Ġd omeni
Ġo cchia
Ġforte zza
Ġaffascin ante
Ġclassifica ta
ĠE siste
ĠParma lat
Ġdire zioni
Ġcami on
ĠDe ve
Ġresp into
b eth
Ġsuici dio
Ġclauso la
Ġinf li
fi si
F R
Ġla terale
Ġcollabo razioni
ĠCONSI GLIO
V ia
Ġom olo
Ġdif ese
Ġconsegui ti
ĠD ona
Ġcri mine
Ġriferi ti
Ġdi vise
tu dini
Ġno tti
ĠC orti
Ġpoten zialmente
or bi
F in
gn Ã²
ĠS inistra
Ġscena ri
Ġs li
vi ano
Ġen uncia
cip elago
Ġpul sante
S C
Ġviol ento
? âĢĿ
Ġviaggia tori
1 10
es clu
ĠBo w
es tern
ĠCol u
ĠPrinci pe
Ġsopp re
p ul
Ġpa tr
Ġarchi vio
ĠA mm
Ġprete sa
Ġlu cro
Ġperfe zione
Ġatle tica
Ġca ser
Ġstatu e
Ġconfigu ra
Ġaggiorna menti
ĠPRO GRA
Ġu p
Ġass unta
acqu es
se o
tea tro
ĠS tella
Ġanticipa to
Ġvideogio co
k ins
ĠDes crizione
Ġbor ghe
Ġmisteri oso
Ġman ga
Ġincen di
al meno
Ġfar ina
Ġstagi onale
Ġinclina ta
Ġporta va
ĠAssocia tion
Ġ19 26
Ġsol enne
ster dam
Ġapp osta
o dio
fi chi
Ġinter e
Ġsoli ta
An n
Ġsal vata
ĠVol on
se zione
' ',
omina to
ĠMonda dori
Ġsonda ggio
ĠWhi te
Ġas teroide
Ġad erire
ĠTa ranto
Ġan tropo
ĠCon se
asi lo
Ġall en
Ġpubbli cÃ²
Ġcas ella
ĠSul l
Ġprefer isce
Ġst ron
Ġbicicle tta
ĠA tten
Ġapplica te
al fabe
Ġdo g
ĠB ad
gg etti
Ġa la
ĠPesca ra
or tando
gui to
vi do
b oni
se mpre
Ġpun tate
Ġecc esso
Ġappar tamento
al tri
Ġatten de
Ġpo dio
Ġdo ppi
ant ini
Ġreali zzando
ĠTok yo
Ġpun tare
Ġfin ta
ĠJa va
va ro
F L
Ġapplica bili
pi ti
Ġand ranno
Ġg etta
un zio
i per
ĠR ose
la ro
Ġ19 13
ĠO k
Ġsconosci uto
ĠDe vo
vi er
Ġpare cchio
ĠF ontana
el ia
Ġcol to
Ġparente si
enne sima
ĠLet tere
Ġsepol to
ĠAr ci
si gnor
ĠPicco lo
Ġviol enze
ĠS EC
ĠPa ris
Ġchitar rista
B M
in tra
ĠAng ela
Ġban co
p os
ĠF onda
Ġcolle zioni
ĠM ed
Ġinfor tunio
Ġaggiun ti
endo lo
ĠFili pp
ĠArchi te
Ġamm esse
te sa
Ġcomo do
di sse
Ġimpre ssion
Ġcommerci anti
T re
ĠSa cra
Ġopportuna mente
ES SA
Ġcorte o
Ġchirur gia
Ġpolizio tti
ĠPI U
ĠFi gu
Ġdelibera zioni
Ġu bria
O ggi
Ġin vol
pi one
ee ee
Ġeli co
Ġabbond ante
si l
Ġsp arti
Ġga tti
dice sima
ĠPas quale
Ġve dendo
Ġdramma tico
Ġca valieri
Ġdiven uta
ĠÂ» .
ĠPresenta zione
ac que
Ġsc ultura
Ġran go
ĠSo cio
Ġinterpre ti
VI TA
Ġabband ono
Ġaccessi bili
Ġd ann
Ġregola mentare
ĠIn dex
. Â»
A ccordo
Ġattin enti
pp ing
d omi
ĠS EG
Ġnascon dere
Ġco ttura
ES CO
Ġdeli tti
Ġcomp lica
ĠCon ten
d l
Ġ( Â«
ĠBa ss
Ġe messo
trin elli
Ġforn iscono
Ġor goglio
Ġirach eno
ĠFoot ball
Ġav remo
Ġraccomanda ta
pati a
Ġp esi
ĠS V
Ġesti va
Ġcoe sione
f ru
Ġste mma
ĠMo li
Ġca li
Ġoff rendo
h l
Ġriuni ti
ĠSa u
ĠQ uo
ĠInter venti
Ġne gare
Ġinnova tivo
ĠPER S
insedia mento
Ġrecipro ca
Ġpro vi
Ġlarga mente
Ġrico perto
ĠAgos tino
Ġcom mentato
ĠJos Ã©
Ġci ta
Ġmonta ggio
Ġri vi
__ _
Ġsal vi
Ġra v
Ġfer me
ĠIn nanzi
Ġcre dono
Ġ19 25
Ġpu li
Ġscon f
Ġrisie de
ĠG hi
Ġincom pren
ĠCir cos
di ano
Ġallo ggio
mer Ãł
ĠNi ck
T ON
Ġdise gna
abi tazione
Ġpo etica
asse dio
Ġderi vati
ĠAlle anza
ĠPar la
ecc entri
la na
Ġe tero
Ġin ammissi
Ġvia ggiare
Ġan om
Ġregi mi
Ġpubblica mente
g ena
a e
tr ino
Ġd uo
n n
ĠL ore
xx x
Ġta sto
Ġraff red
ĠEdo ardo
A bbiamo
Ġinnova tive
es el
bbe di
P AR
Ġfronte ggiare
Ġcanti eri
Ġgiudizia ri
Ġres tanti
Ġesclu sa
Ġsoff o
Ġparall ela
ggi anti
Ġpis cina
fe zione
Ġav remmo
art h
ĠA UTO
Ġsele zionare
Ġto talitÃł
O pen
y ne
ĠProv ve
Ġdiv ino
Ġepi de
ĠB and
ĠP ort
one si
ĠCom m
Ġris anamento
b ani
Ġga mba
Ġconsen tendo
Ġpad roni
Ġinci so
d ney
Ġarri vi
S iamo
l ena
o per
ĠMa te
LA S
Ġconcre tamente
Ġdo ti
Ġforni tori
Ġtramon to
ĠW o
Ġmedicina li
Ġprovviso rio
Ġes tero
Ġrati fica
Ġvo cale
Ġoccup arsi
Ġgu ai
ro le
ra l
Ġpara li
he i
et tino
Ġa ero
o dier
Ġpaci fica
ra litÃł
Ġo dia
Ġar gen
Ġgiu ria
Ġavvia ta
Ġca os
Ġsperi mentare
Ġille gale
Ġcandi data
Ġavversa rio
Ġsoli do
Ġban ale
ĠComun ista
Ġrichia mare
Ġfon d
Ġc ente
ĠP OR
c omi
Ġtelefon ia
U l
Ġdipen denze
Ġrima ste
Ġten ore
Ġcorre ttezza
Ġscompar so
Ġf erita
Ġasse gni
ri ana
Ġca sse
Ġe terna
ĠI R
Ġtre dici
Ġnon viol
ĠEn ter
ĠT AR
Ġimmi grazione
Ġderi vano
Ġscon tra
u ria
ere bbero
Ġaggiun gendo
Ġesi sten
ĠSco zia
Ġvo lare
ĠL and
ĠL ie
ĠG la
Ġandre bbe
Ġfecon dazione
Ġcart ella
so prattutto
Ġotti ca
ĠHi gh
Ġaccompa gnati
Ġartico la
Ġ24 1
Ġvul nera
Ġren dimento
Dis posizioni
adegua mento
Ġcenti metri
Ġconos cer
Ġdif ensi
ĠB y
immo bile
ĠA sse
ĠSy stem
Ġ- --
Ġspiega zioni
Ġsp unti
Ġro cce
ĠVer so
Ġorganizza tori
ba ta
ĠCo ordina
Ġrisc os
Ġs vin
Ġsosten endo
Ġdisp re
Ġac quisiti
Ġti rare
mma i
Ġcompa gna
Ġsor genti
Ġpredisp orre
Ġconte s
ha ra
Ġp alle
Ġu man
Ġbur ro
h at
Ġri dotte
ĠRi le
ba y
ĠLib ero
ĠRe pli
Ġopp osta
Ġfederali smo
ĠLi ceo
Ġopport une
ĠM OR
Ġpre gio
prin t
ĠMa rocco
Ġmultimedia li
che tti
it le
m q
Ġsvol se
Ġvo cali
mo to
ĠE ric
Ġpecu liaritÃł
Ġmino ranze
ĠP ensi
Ġpian gere
Ġagi sce
Ġp enti
Ġmultimedia le
esi mo
Ġsco ppio
A osta
Ġconos ciamo
gg ente
ĠI C
ur nal
Ġam ante
Ġfanta scienza
Ġsoff re
ĠCa mer
gia to
ĠF iore
ĠPre sidenti
Ġtema tica
Ġbritan nici
ĠTi r
qui renti
ĠFi sica
Ġstabili menti
ĠCA PO
Ġappassi onato
rita s
Ġfres ca
N elle
Ġten ne
Ġdirig enziale
Ġrisul tante
ĠSa mu
Ġconta va
Ġidenti ficato
ĠComuni cato
Ġsugg esti
ĠTex as
Ġaffi dati
Ġca richi
lan tico
Ġcontraddi zioni
tori etÃł
Ġass umendo
p ha
Ġpi etÃł
id ro
ĠAn der
Ġto ccare
Ġalc uno
b ino
Ġscri vendo
Ġacquisi te
Ġsviluppa ti
Ġcentina io
sa la
esp ansione
Ġpre ferenza
zza tura
ĠGior nata
ĠB ER
Ġsignifica ti
r ca
i che
g una
po lio
g la
gra zie
Ġf erra
ĠM iss
Ġcivi co
ĠContin ua
Ġp ali
eff ettiva
Ġricon fer
qu is
Ġpar li
me d
Ġaccompa gnamento
Ġfol le
Ġstan te
Ġcomple anno
Ġsta sera
Ġsal do
Ġan onimo
Ġsuddi visione
Ġass essore
Ġcamm inare
ing le
Ġtrova vano
Ġviss uta
Ġpro cu
Ġcondanna ti
Ġa ro
ĠSoci ety
Ġscon tato
ĠPa tto
Ġfrequ entemente
T P
Ġfran chi
Ġcond om
Ġchi mico
c etto
Ġver te
at tra
Ġspon sori
ĠD esi
ĠGre gorio
Ġ19 22
U SA
ĠPi ani
Ġpluri ennale
Ġs bi
ĠIn via
ĠP enn
ĠGra zia
Ġforn endo
Ġind os
ĠSa cro
ĠConsigli eri
ĠAlfre do
Ġtess era
ĠMessa ge
Ġcos mo
Ġb ei
ĠB orsa
Ġ `
Ġin co
Ġin denni
Ġno le
le tte
Ġbru tta
Ġg omma
Ġinstalla to
ĠBa gh
Ġa h
Ġinforma tiche
Ġtecnologi che
Ġpre scritto
Ġ Î
Ġten ente
Ġgesti ta
ĠQu e
mi ti
Non ostante
Ġconserva ti
ĠRicor do
ĠL or
can estro
ĠCre a
Ġinfra struttura
ĠMaddal ena
âĤ¬ Â
Ġdisp on
Ġde grado
Ġguada gnare
G NO
di r
ĠSco perto
Ġordina menti
Ġprepa rati
Ġingegn eria
ĠJ i
vi lla
ĠAlessand ria
Ġapp ortare
Ġgre ci
Ġmi tra
Ġra m
Ġor chestra
c ane
Ġmete oro
Ġbi cchiere
il lo
Ġtranquil li
ĠB EN
ke y
Ġinqu inamento
Ġsan tuario
Ġan damento
s ino
Ġtelef onico
ĠD onna
sc ano
Ġf ro
ĠModa litÃł
do glio
PO LI
Ġinsu fficiente
ecli ttica
ss ette
Ġag ricol
Ġsostitu isce
Ġcaut ela
Ġsconfi tte
e missione
ĠSe mp
ĠKoso vo
eso ro
tta te
ĠConte mpo
Ġcapi tato
Ð ¾
Ġris tretto
ĠCa ta
Ġrispar mi
Ġregistra zioni
ĠF os
Ġembri oni
Ġali mentazione
Ġdis ar
Ġperiodica mente
Ġreper ti
Ġdov rei
Ġn ere
ĠM and
Ġpreli minari
ĠSc uole
Ġmenta litÃł
ma la
Ġgino cchio
Ġporto ghese
Ġp anta
Ġtur ni
Ġre clusione
ĠBi anchi
Ġriusci rono
Ġv ar
Ġcomuni cati
ĠO P
au tenti
Ġdestina tario
ĠConf industria
Ġi spe
c gil
ro ssa
B N
ĠL y
Ġmini me
Ġqu ant
Ġregola mentari
Â ·
Ġgri da
ĠTa y
Ġrisal ente
ĠNi ght
etta bile
ĠR eno
Ġ16 5
Ġa prono
Ġconiu gi
Ġmis eria
Ġpia cciono
Ġsud dette
Ġ10 5
C at
H O
f el
Ġe cci
Ġinver nale
Ġs man
ba i
ĠVIS TO
ĠRen zo
mer cato
Ġlascia ta
Ġpubblici tari
re cen
Ġcomp ensi
Ġrin viato
Ġsepa rate
ĠK ir
Ġal fabe
ĠSo ftware
Ġav vale
Ġcoordina to
Ġlavora tive
ĠSal uti
Ġebra ico
Ġv es
Ġmona ci
Ġisla mica
tr one
Ġidone itÃł
Ġautenti ca
b lu
Ġsape vo
Ġintegra lmente
zzur ro
is tru
av versario
ĠCOMUN ICA
ĠS um
Ġriten uti
ĠConsid erato
Ġg al
Ġca denza
Ġsba glio
tra sp
ĠP AG
Ġallar me
T ri
Ġass omi
Ġgio ventÃ¹
Ġcongi unto
Ġlum ino
Ġsensibili zzazione
bi zione
Ġurb ane
ĠVen gono
Ġinn alza
Ġca sta
ĠAf ghanistan
dio cesi
do lo
ĠRe ale
Ġbreve mente
Ġ omici
ĠJ unior
ĠFo x
ID A
C OL
co ol
ĠAward s
ĠSer ver
Ġfiloso fi
Ġfi bre
Ġzo o
Ġpres umi
ĠCon cor
Ġfa vor
au x
ĠCON TRO
C ar
Ġsub isce
Ġm etto
T er
Ġsca turi
ron os
Ġli gu
mp h
Ġad de
C ia
ĠT r
pa ssa
Ġordina ri
ero e
Ġinteress ano
ar vi
ĠC IS
. (
Ġstori camente
Ġri medio
ĠMon t
Ġatte sta
U no
Ġ" ...
lu ca
Ġav vel
AN E
Ġto ccato
Ġin gredienti
Ġvin co
pren de
Ġspiri tuali
S te
Ġso cial
Ġma gico
Emi lia
Ġcomp ia
Ġaggiun gono
a ggi
den ziale
Ġinten do
Ġabb attu
Ġdisp oste
fo glio
Ġsopp resso
Ġammi rare
Ë Ĩ
c ta
asp x
atti mento
ĠO f
IN CIA
Ġpensa va
ĠUni tÃł
si ze
ĠBa viera
Ġchiama va
Ġaffi dare
Ġcircos tante
Ġbar ra
Ġsal vato
ĠSi ria
Ġch at
ĠPRO G
Ġregi sti
ĠG ori
Ġsosp esa
ĠD er
ĠQUO TE
ĠD ato
Ġtra gica
ĠNess una
zz eria
Ġuni to
ĠC ER
Ġad erito
Ġappre zzare
om onima
lo ca
tu tti
Ġrim uovere
J a
Ġmolti ssimi
Ġricor dando
Ġle tti
Ġconfor mi
adegua ta
s burgo
ĠSo prattutto
D IO
un no
Ġde a
ĠK h
Ġi stin
Ġho c
Ġfanta stico
ĠAm sterdam
eccentri citÃł
l uo
Ġinter ru
Ġcontra ria
Ġnega tive
Ġcapitali smo
s anti
ĠCarlo s
ĠTo pic
Ġconten imento
rur gia
ĠSira cusa
Ġ19 32
Ġtratta zione
ĠF IS
Ġmeridi onali
Ġbra vi
ma gazine
ĠM issi
Ġtro pi
ra va
Ġse cca
Ġin v
Ġtiro cinio
U RE
Ġsugg es
ĠR ie
ĠP are
! ).
fre e
Ġvia bilitÃł
ĠZ ona
mb ula
Ġgradu almente
Ġpesca tori
ĠPar tico
Ġsera te
Ġtempo rali
ĠCo pyright
12 56
Ġtras cura
Ġsoffer enze
ĠIr landa
Ġnazi sta
Ġno bi
ĠLa w
Ġconversa zione
Ġaff ol
Ġa cciaio
Ġcon ciliazione
co pia
na ti
Ġpale stra
Ġinter i
ĠConci lio
s ini
Ġre torica
ado lesc
ĠLond on
Ġcli entela
Ġcaratteri zzati
w en
Ġblo ccato
Ġmultina zionali
ĠP ana
Ġso cialmente
Ġacquisi ta
Ġpos a
Ġom onimo
Ġada ttamento
Ġincre mentare
qu esto
Ġfinis cono
ĠJu goslavia
der mi
Ġconge do
ĠF eli
Ġvi ti
ca sa
pu b
ĠA mato
ĠÂ£ .
Ġm art
ghe tto
era tori
Ġin fil
pe acelink
Ġdel inqu
Ä ĥ
C la
Ġquali ficato
Ġtra m
a mmi
Ġfil mato
ĠTre monti
pi ca
ĠMuse um
S tu
Ġd ero
do wn
Ġanzi ano
Ġamm essa
Ġsosp etti
Ġro bot
ĠUmb ria
Ġspeciali sti
Ġirach eni
Ġca tene
tran do
one se
ĠVirgin ia
Ġpropria mente
ĠAN CHE
ĠR ena
m anno
Ġgen erato
I struzione
d ard
en tu
ĠF U
Ġinsedia mento
ĠS how
Ġcombatti menti
b rale
ess anta
gi Ãł
Ġpen na
gui tÃł
Ġrifi utato
Ġceleb rare
ĠITALI A
Ġcontinu e
a ssocia
uo ve
Ġprof ondi
Ġconcer tazione
Ġfar ti
Ġprom ette
adempi mento
do w
ga ma
ĠPubbli co
Ġl ente
Ġospi tato
lin gu
AN TO
Ġconse gnare
Ġeconomi camente
A P
ĠA CC
ĠGe or
M ad
ho t
ĠBagh dad
Ġcel este
o ceano
Ġtu bo
cli p
Ġautonoma mente
Ġsegre ta
ro w
Ġparadi so
Ġfur to
Ġartico lata
ZI E
is sero
Ġ ........
Ġsemia sse
m ostra
ĠJu li
Ġtra va
Ġdichia rati
ĠV OL
line a
ĠB AR
Ġcal colato
Ġsupre ma
all enatore
Ġ .....
ĠTI TOLO
n ti
ĠR ina
Ġgui dati
ĠCon os
Ġspia gge
E r
gher ese
av vi
Ġinsta llazione
b ine
Ġtranquil litÃł
Ġ11 4
ĠK ong
Ġsopp rimere
Ġpotre te
Ġcomple mentari
ta bili
Ġmutu o
Ġ( )
m ero
ma ri
Ġsca ppare
Ġraggiun gono
Ġdisp erazione
Ġdeci siva
ĠNo bel
Ġver sare
Ġ19 21
ĠDa ti
Ġconsoli damento
p ina
Ġpres unta
cen o
val ente
Ġtesta ta
ĠGenti le
MB RE
Ġaccol ta
in su
ran di
ttan te
Ġricer care
ĠH an
Ġse dia
Ġdue cento
Ġ12 8
Ġtradi zionalmente
Ġmana gement
Ġpopolari tÃł
Ġde gra
LI N
th ur
Ġ: -)
Ġdicio tto
Ġca duto
ĠG or
c esse
Ġprop ongono
ĠT esoro
ĠValen tino
Ġto pic
mma tica
An dre
Ġviol enti
ga bile
Ġacc ant
as colto
ĠPer son
Ġimmobili ari
Ġsta vo
appar ten
apposi ta
Ġcuri oso
f ania
Ġra ro
Ġricor renti
Ġscul tore
ĠA tto
Ġperci Ã²
Ġemer so
Ġlimi tro
Ġrisal gono
Ġafric ani
Ġprece duto
Ġsc an
Ġspeciali stica
ĠA ziende
ĠSotto segretario
ĠE ff
uni ty
for m
qui rente
Ġavver rÃł
ĠM onica
Ġindire ttamente
ven uta
Ġatle ta
ĠB A
ID S
ĠFa miglia
z on
ĠI van
Ġtorn ano
ĠD etto
ĠFin anza
ĠA udi
ĠF rie
ĠCir ca
Ġconf essa
ĠSpe ciale
Ġter mo
Ġsogg ette
Ġpre clu
Ġinforma tiva
Ġbi ologici
Ġarbi tra
atten tato
Ġrina sci
ĠApp ena
:: ::
Ġva sca
Ġ3 000
asse gno
ĠAR TICOLO
Ġso gna
ĠCa tte
as tro
ĠAl len
ma in
ĠApp le
ĠLin gua
Ġsa ti
Ġscienzia to
a mericano
Ġproi etti
ĠMIL ANO
Ġ10 3
Ġpre dette
Ġusci ti
Ġinci dere
Ġcongi unta
lan der
Ġvi vendo
Ġmen sili
Ġpoten ze
Ġpi tto
Ġrip u
ĠFin landia
per chÃ©
Ġru rali
ĠSe minario
ĠMon tana
Ġrestitu ire
N orme
ss er
Ġ11 5
Ġcu gino
Ġsf uma
Â» :
gge zza
Ġimmo bile
Ġbasa te
No tizia
Ġv etta
Ġdis in
Ġturi stiche
Ġsupp orti
Ġincen dio
ĠErn esto
cun ia
ĠMon ta
Ġmuo vere
Ġm uti
Ġprefer enze
Ġarre tra
ĠFin almente
GLI A
ĠP elle
ppa ti
ĠH ans
Ġeduca tivi
Ġtrov Ã²
Ġre in
en er
Ġclassi fiche
play er
Ġblo cca
Ġprede c
" ",
Ġri mpi
ĠVal erio
P ri
ĠEdi tore
Ġpuni zione
for t
boli zione
bin etto
datti ca
Ġcittad ine
Ġdimenti ca
Ġdeci mo
Ġlavora trici
... ).
ĠG RAN
ĠA lan
ĠFOR MA
Ġtasti era
Ġdi te
Ġsen t
Ġstan ziamenti
ĠT EC
ĠP isto
Ġinca pace
Ġclassi ficato
Ġstimo lare
Ġpreco ce
Ġaustria co
D D
ĠMe mbro
Ġatten u
Ġse dici
Ġpatro cinio
Ġte ore
ĠCo opera
alber go
Ġsvizz ero
Ġmi ele
vare se
Ġvicin anza
Ġconf erito
s us
ga ria
ris on
Ġproto tipo
Ġcada vere
Ġevol u
Ġdo ping
Ġuni ficato
ĠTi m
Ġbel ga
Ġtecnologi ci
T itle
er centi
Ġcanc elli
ass alto
Ġgradu ale
Ġma gica
An tonio
ĠDire ttiva
ĠRe dazione
ĠE sse
Ġisraeli ani
ĠN ATO
Ġinclu se
g gato
ri sp
Ġba ri
ĠBi r
Ġfisi camente
Ġsal uta
Ġtor to
Ġint rinse
Ġcre duto
ĠE lio
ci s
Ġdescri tti
Ġser ena
Ġad dor
Ġo ver
Ġosta colo
A f
Ġsconfi ggere
@ @
c uola
Ġinqu inanti
Ġeserci ti
ĠS IS
Ġser p
Ġesi b
Ġanzi tutto
tere mo
ven t
Ġsepa rato
Ġbi zan
Ġpun tuali
Ġdov essero
ĠA pri
Ġragi on
di so
Ġa po
cos cen
ĠLu isa
Ġfabbiso gno
f oni
Ġforesta le
Ġapp rendi
Ġsoli dale
ĠEurope i
o b
gi on
Ġmanifes tato
Ġlocali zzazione
lia mento
ĠBlu e
fa to
inter faccia
ĠRi voluzione
ti ti
Ġpro posi
Ġcre ano
Ġassor bi
Ġturi stici
Ġimpedi to
Ġindu bbiamente
i ano
Ġban de
Ġaspi ranti
ĠC eci
Ġlicen ziamento
Ġchi miche
ericor dia
Ġdi ra
ĠR U
Ġ ombra
tto lo
Ġaper tamente
h io
Ġappar tamenti
Ġconc esse
et era
er lo
ul si
pi co
âĢĿ ;
cu ro
Ġassicura zioni
Ġan tin
y u
Ġesp licita
A g
ĠO gn
Ġabband ona
Ġla mpa
ĠVi c
Ġconfron tarsi
Ġstimo lo
ell ina
ra tura
a bilitÃł
Ġinten to
ĠLi fe
Ġinfanti le
Ġbotti glia
se gna
ĠRo bin
Ġentra ndo
Ġuni che
Ġhard ware
ar mata
âĢĿ :
Ġtro verÃł
Ġmodifica ti
Ġsi mul
Ġpon endo
ĠGiudi zio
Ġlascia ti
Ġk a
A quila
ĠBri an
lla to
e v
M AR
ĠGu sta
Ġba ttendo
ris h
Ġreal ta
Ġcon tano
Ġcontrib uzione
vi ti
pre sa
ĠLegi sla
Ġsin to
Ġimp ulso
S pa
poli s
ĠAlex ander
' )
Ġdistru tta
ĠA risto
ON ALI
Ġ19 11
ĠVio la
. <
Ġbev ande
chi lle
AN NI
ci da
organi co
ĠPRO F
TI S
pro du
Ġpensa vo
Ġsuff ra
Ġrappresenta zioni
Ġradiotele visi
p endo
amministra tore
Ġtrasforma ta
Ġsenti te
Ġaffa ccia
Ġcomp rato
Ġ ................................
R u
ĠO S
Ġtrion fo
ĠRela tore
Ġumi li
f one
ĠKar l
Ġritra tti
Ġpola cco
Ġperfe zionamento
Ġza mpe
Ġgen ero
Ġre cin
Ġa risto
Ġoccupa re
ĠCa ser
Ġimp uta
Ġvo lante
gui da
ĠMon za
Ġelettri che
FF IC
ĠDelib era
ĠRu sso
Ġmotiva ta
Ġd orsa
Ġrappresenta te
t hi
ĠV la
ex cite
uti ci
atti vi
Ġgiusti ficazione
Ġriscos sione
Ġillustra re
ĠE va
m ura
i gno
zz one
rin disi
ĠSer bia
Ġ14 2
p oste
Ġav an
âĢ¦ )
Ġsca vi
Ġ Ù
Ġci tate
Ã ¯
ĠNo tizia
Ġriserva te
ĠPe chino
ĠO biettivo
cÙī pi
ĠM org
n k
Ġabband onata
Ġsolle vato
OR T
Ġleader ship
Ġarche ologici
n ano
Ġdedica rsi
ĠK at
Ġalterna tivo
Ġero e
Ġmunicip ale
Ġlotta re
ĠBos ton
h ol
Ġdiscu te
Ġcosid dette
d eli
Ġe mpi
Ġfir mare
etu dine
Ġapp unti
Ġestre mo
ĠJohn son
Ġimb arca
Ġri vale
se a
ĠE inaudi
Ġa stronomi
Ġacc us
Ġmeri ti
ĠOrgani zzazione
Ġrazionali zzazione
al th
l ente
Ġcapa cita
Ġfinanzia to
Ġsuperfi ciale
ra s
Âł UA
A ssi
V a
Ġep isco
Ġd Ùī
ĠCar l
Ġa cido
Ġinvia te
M ER
ĠLu do
gi menti
ĠH ard
ren t
Ġpe cunia
Ġtempes tivamente
f ar
Ġterres tri
Ġsereni tÃł
ĠPROGRA MMA
Ġchiede va
b es
ĠDy lan
Ġsogg etta
ĠIn troduzione
ĠNuo ve
ĠGI US
Ġcom messi
gen ce
Ġanalo ga
Ġgui de
Ġfanta sma
Ġstupefa centi
Ġrischi ano
ĠRi cci
na ro
a usi
TI N
Ġspos tare
ĠSi curamente
ti sh
Ġir landese
ĠCor rado
Ġraddo ppia
Ġgri do
Ġde v
Ġar monia
Ġpoi chÃ¨
Ġinver no
Ġcilin dri
Ġman gi
si amo
U r
Ġtrasferi ti
Ġsottoline ando
Ġante ce
Ġcan ne
Ġmus coli
cci ando
Ġbu co
Ġriusc Ùī
ĠGiord ano
Ġcaratteri zzano
Ġsimpa tico
Ġres tante
Ġna vata
bi co
Ġval gono
Ġassun te
Ġeccessi vo
Ġintegra tiva
fi canti
Ġli cenze
ĠSul le
Ġmeccani co
Ġtar da
Ġ ^
ĠAl bert
Ġpassi vo
Ġdiabe te
Ġde gna
ĠV il
Ġfa tic
Ġde gno
Ġpre messo
PO SI
Ġdiscen denti
Ġmassi ccio
Ġdiagnos tica
Ġecon om
Ġatte se
ziali tÃł
Ġconiu ge
Ġarri verÃł
Ġeserci tata
Ġrifor mu
in co
Ġve dova
Ġinterpre te
Ġbi b
Ġedi tore
Ġ ze
ĠCro azia
Ġan ten
bb ri
ĠSta te
Ġtur co
ĠMedia set
Ġde gen
Ġriti rata
Ġumani tÃł
Ġindo or
Ġocca si
ĠGru ppi
M ON
ĠIs land
Ġsv uo
IS TA
Ġpotre mo
Ġcalcia tore
Ġpro cre
ĠJ acques
TI VE
Ġpriori taria
Ġprose cuzione
Ġs qui
um ani
Ġmolti ssimo
Ġva sti
Ġurbanis tico
Ġesa minato
Ġcongiun tamente
Ġobbli gato
F o
fa ti
issi me
Ġris enti
Ġcontrolla to
Ġcontinu erÃł
ĠA bra
Ġsu rre
ĠS enti
Ġdeli cata
Ġprigioni ero
Ġsele zionati
Ġmo use
alterna tiva
AS S
der ia
ĠGol d
O gni
Ġiscri versi
ĠMa gistra
Ġreso conto
Ġsplendi do
Ġmisura re
U omo
Ġripa razione
ĠE mma
ZZA ZIONE
Ġaugu ri
ĠA ure
th an
f ine
di sa
mbascia ta
Ġcambi ano
V III
itali ana
ĠMo du
Ġsimbo lico
Ġdibatti ti
Ġere de
ni eri
Ġer ba
Ġes on
Ġpartecipa zioni
Ġisraeli ano
pa ss
Ġaffa sc
m etto
Ġe u
Ġmorta le
Ġfavo rito
Ġriti rare
Ġcommissa ri
Ġrappresen tanze
ĠCOM MIS
ĠRapp resen
Ġeserci tato
Ġsimpa tia
Ġ19 10
Ġsoff rire
Ġauto su
ĠL ong
Ġesor dito
Ġdire ctory
b ello
Ġgra ssi
co dice
H i
ĠBa ra
Ġpre annuncia
Ġscu detto
Ġpreno tazione
Ġpiane ti
ĠFin anze
Ġattraversa to
Ġappro vate
gli anze
Ġinde boli
Ġgo dimento
ĠI T
Ġfar le
Ġsenti va
res ci
Ġver rebbe
inter azione
ars ene
Ġpermet terÃł
Ġp elo
Ġpro le
via le
Ġdec lina
tici tÃł
ĠS tri
Ġcomp oste
ĠThe a
ĠR ES
fi r
Ġcorre lati
Ġcontra sti
bi t
Ġregolari zzazione
Ġrip os
Ġapprofon dita
Ġdimin uire
Ġpratica re
Ġcore o
Ġse duto
Ġtrascor rere
Ġop zione
Ġtel esco
u u
ĠC lar
ĠDa vis
Ġra zze
inte gra
ĠF E
ĠT esti
Ġaff li
Ġparteci per
Ġverifica rsi
Ġartifi ciali
Ġrazzi smo
Ġsu ss
h doc
fi cÃ²
n g
voluti on
; .
mb ria
ĠPo tenza
ĠSanto ro
Ġinterro tto
gor y
giu stizia
ĠTEC N
Ang elo
O li
Ġpal coscen
Ġgaran tendo
Ġridu cendo
zia te
Ġm t
Ġmu tui
Ġcli ent
) ...
en os
Ġgra fici
Ġesp one
Ġpla ne
Ġmusica l
Ġpri ve
ĠV inci
Ġminoren ni
Ġimp rigi
Ġcontroversi a
esi stenti
ĠR at
Ar ti
ĠC ant
TOP IC
Ġal lievo
Ġscato la
na zione
ĠDire ttivo
Ġpe dia
Ġriten iamo
Ġrisp e
Ġespri mono
Ġspia ce
Ġazzur ri
Ġnego ziati
Ġfol k
Ġdona zione
ĠF le
tt y
Ġbombar damenti
Ġinaugu rata
Ġrassi cu
ĠBi blio
Ġsuper ando
Ġ19 16
Ġcomp arti
Ġtu mori
trib uto
Ġsal sa
ro ssi
Ġga me
inci denza
Ġpro venti
Ġformu lata
n te
Ġinterpre tata
ĠS par
ĠT era
res co
Ġidra u
Ġri mpia
Ġdetermin ano
Ġg lori
Ġc uori
Ġco pre
Ġradica lmente
G er
ĠS k
mon t
Ġmuta mento
ĠI sole
Ġfil mati
Ġverifica ta
Ġo bbi
ĠSta tes
Ġbo zza
Ġsto maco
ĠPaci fico
Ġtra dimento
ĠGi rola
Ġemer se
ĠD omini
Ġbeneficia ri
Ġmoder nitÃł
au dizione
Ġricor re
Ġopera io
Ġgia lla
Ġcollo cati
Gi or
Ġflessi bile
Ġcal coli
Ġtol to
Ġs ano
Ġtrasferi ta
Ġtriste zza
Ġimprov vis
Ġbon us
Ġpro t
ĠSu bito
Ġmeta boli
S er
Ġgi roni
Ġricos tru
di t
Ġun der
Ġincon tr
Ġimb ar
cente sca
Ġriun isce
Ġtemp esta
.... .....
Mo di
Ġemi ttenti
Ġdivul gazione
Ġp el
ĠT rini
ssa ri
al f
ĠCostantino poli
ĠWW F
Ġins ul
c d
Ġmattina ta
Ġsca cchi
Ġveli volo
Ġpr eroga
Ġsalvaguar dare
ĠLega mbiente
Ġquad rato
Ġpoter si
ra ggi
chi e
ĠPROV INCIA
ac tion
Ġnor ve
Ġesp osta
Ġsposta menti
Ġsequ enze
ĠA posto
Ġri mpa
Ġanima zione
Ġaccer tato
su b
Ġci pol
Ġinten da
et tero
Ġritro vati
Ġdecora zione
G C
O s
ĠT oni
in domani
cando si
Ġgesti ti
conten t
s etti
Ġconven zionale
Ġesclu se
Ġnerv oso
Ġti mi
Ġmeda glie
ph er
di oso
Ġ Ä
Ġfra zioni
Ġamplia mento
ĠMa gari
Ġfis si
Ġang lo
Ġlon tane
Ġsi mmet
Ġprom osse
ĠBa se
Ġlascia te
Ġguida te
vo re
zz arlo
ĠDi vision
Ġarche ologico
ut enti
Ġcomun ismo
Ġimpro ba
ĠF ER
Ġfu cile
Ġconc omi
Ġat tribuzioni
Ġincom ple
oooo oooo
Ġra vvi
Ġarra bbia
cit tÃł
Ġer rone
Ġaver ne
Ġde gu
A teneo
Ġtrasc orsi
ina ugurazione
Ġesa mina
ĠS eni
Ġpu gno
Ġm g
Ġdiss enso
Ġm l
t le
AT TO
Ġdi venti
tra l
Ġta gliare
tt Ã©
Ġtea tri
Ġliberali zzazione
ĠS is
Ġrimar rÃł
O LA
Ġstri scia
os cia
Ġesiste va
ga ra
un ciano
ce e
monte se
Ġosserva tori
Ġass enti
Ġnottu rno
ĠOff line
cu a
Ġmatura zione
Ġpann elli
Ġcrea tiva
Ġcarb onio
Ġbrasili ano
ĠPoli tica
Ġpon gono
Ġpre ziosa
á ¹
Ġirre golare
ĠCa ritas
Ġdo lori
Ġfam ose
Ġcrea tivo
O ro
vi menti
Ġatten tamente
ĠIN FORMA
Ġl or
) -
ĠREGI ONE
Ġconvin ce
der ne
Ġlun g
cal cio
Ġparro co
f esta
Ġat mosfera
ĠE LE
Ġesor dio
Ġcoper ti
ĠAlessand ra
Gra zie
Ġsuperfi ciali
Ġin uti
Ġanalo ghi
Ġg ar
Ġtesta te
fa st
Ġsba gliata
et s
âĢ ¢
Ar ticolo
Ġrima sero
Ġre vo
Ġclassi che
ĠS TRA
Ġvie tata
eri ci
Ġfidanza ta
Ġcom posizioni
ĠCer tamente
Ġcompren deva
ĠRi forma
Ê ¿
Ġrecipro co
ĠWol f
Ġat tribuzione
ĠGoo gle
b era
con os
Ġseconda rio
Ġrifer isco
Ġprin cÙīpi
mando si
i mpo
ĠI O
ĠM ann
S tar
ĠMo ri
Ġparche ggi
ĠC une
Ġ19 00
ĠG alle
ĠU IL
auto strada
imprendi tore
Ġmis sili
Ġconsi gliato
ĠGiu ri
ĠDani ela
Ġbio grafia
Ġg he
Ġtrib uto
Ã¨ s
Ġspeci ficato
Ġartigi ani
ĠB ello
ĠV enti
Ġpromo tori
ĠLis bona
ĠCom unicazioni
w art
Dis tribuito
ĠMa ssimi
Ġplurali smo
ĠCN R
ĠV as
ĠT uni
Ġse ggio
ten o
Ġb in
Ġf une
ce to
ĠBa sti
amp liamento
Ġa datti
pi per
Ġ: -
Ġqu ie
Ġse ta
Ġlo tto
Ġappa rati
Ġlimi tati
Ġpiatta forme
Ġeli minazione
Ġso lari
rd ino
tar ne
ĠSette cento
Ġfun ghi
Ġbol lo
Ġlo giche
Ġmo re
ĠEn te
Ġt ena
bietti vi
ov vero
Ġna stro
Ġi talo
ca m
Ġra ra
Ġcons ensi
p orre
st ini
Ġcon vali
Aus tralia
Ġbersa glio
Ġinf ia
ĠProf essore
Ã £
Ġcompa iono
ĠServi ce
Ġqualifica ta
Ġautori zzate
Ġ- ---------------
ĠSci enza
ĠF O
Ġseconda rie
Ġin chi
Ġedi tori
Ġ endo
Ġspeciali zzate
Ġno t
Ġcampani le
cu rio
ĠS cor
Ġriusci rÃł
Ġpro tra
us h
Ġaggiun tive
Ġara ba
ĠRi tiene
Ġca ttivi
so ciali
Ġar rangia
Ġviva ce
s teri
Ġau tunno
ĠC lin
M or
Ġagricol tori
Ġoff ensi
it in
Ġan goli
g hia
Ġsincera mente
Ġdisa gi
ĠDu ca
da i
ĠFor ce
ĠTay lor
Ġall er
ĠH is
Ġfia to
Ġprofu mo
piper mail
Ġpa ssioni
Ġc ess
tti che
Ġsti me
Ġabb re
Ġpreventi vamente
ĠA pol
Ġfil tro
Ġcommis si
Ġle gna
Ġfavori sce
an cora
he ad
ĠGio ve
Ġven er
Ġallena mento
Ġ( âĢľ
Ġrapi di
ĠPers onale
Ġre tto
Ġcom ico
Ġesperi mento
ĠRep ly
ĠC S
Ġtor nei
Ġsetti ma
ĠC fr
ĠCi le
Ġli to
pri mo
Ġcoordina ta
Ġcattura to
Ġla sc
Ġca libro
Ġfasci colo
Ġesc ono
J u
sta mente
Ġvis se
Ġre tribui
imp utato
ĠAve te
Ġsa ggezza
Ġinda gare
Ġvisuali zzare
Ġgra vis
ĠD M
Ġesecu tiva
viso re
ĠNu cle
Ġpa cchetti
Un gheria
Ġcompren dente
Ġdisp ari
Ġagevo lare
Ġbandi ere
is pi
Ġdov ra
appro fon
ĠNEL LA
Ġpa ure
la va
Ġren dersi
C RI
V al
Ġcomba tte
Tu tti
b ru
Le gge
ĠM io
v anni
po p
b n
Ġi st
Ġsti mato
Ġin dotto
Ġ \
ĠE R
Ġpropor zione
ĠF IA
AG I
Ġm osa
er ino
Ġrispon dono
Ġdif eso
Ġs ven
en zione
esi a
Ġstraordina rie
Ar gentina
Ġpres unto
Ġesplici to
Ġad ulto
cente sco
Ġtela io
ĠN orth
Ġdefinis cono
Ġispi rata
Ġcoloni e
Ġconvin ta
ĠNa vi
Ġapp alto
qu ello
ĠCen to
Ġdiscre to
Ġrinnova bili
col tura
Ġforma ggio
s ka
x E
ĠB ang
fa miglia
Ġpesante mente
ĠRe g
ĠOr mai
ĠFlori da
Ġo bi
in finito
ĠP il
Ġriti rato
Ġcorre zione
Ġproto colli
P ON
Ġpartecip ando
Ġridi mensi
ĠAl meno
acc ettazione
ĠRa m
TI CHE
Ġcomp ortare
Ġditta tura
enn ino
Ġaddestra mento
Ġassocia te
Ġro tto
Ġeccell ente
ĠIn dice
ĠRosa rio
vi l
b et
U NA
fi o
ss one
americ ana
esp ulsione
ĠLa den
Ġcilin d
s ul
Ġchia rito
Ġqualifica zioni
Ġbi mbo
ĠO tta
Ġo ffi
Ġinedi ti
ĠVen ere
Ġriten endo
ĠBern ardo
si bili
ĠCos Ã¬
Ġcaut elare
Ġriparti re
docu menti
Ġde moni
Ġcondi zionata
ĠRegi onali
Ġperio dico
Ġcontra pposizione
âĤ¬Â ¦
Ġclan destina
Ġconce pito
f ul
ĠS CI
ĠB R
a mica
c ui
Ġprof e
LI LI
ĠPro mozione
Ġca dde
Ġgra mmi
ren ce
su ale
Ġaffi anca
Ġes ca
B ar
Ġdiv orzio
Ã§ o
Ġriserva tezza
Ġbon tÃł
Ġcre ate
Ġprivati zzazione
Ġrichie denti
Ġacc om
ĠCe ca
inf ra
ĠDon ne
ĠPi an
ĠBo e
ĠDi ck
ro l
ĠA ga
Ġdialo ghi
Ġcondi visi
Ġc ano
w orth
colo re
sa le
mm y
dendo si
Ġde ce
ĠS OS
ver de
ĠB ando
Ġdom ini
Ġassur do
Ġfalli to
Ġesp le
Ġma ppe
sp or
vin ce
Ġro mpere
ĠAppro vazione
Ġdiscip lin
Ġmon tane
he he
Ġargomenta zioni
ĠA bu
w itz
Ġconn esso
f eld
Ġcoer enti
ĠA do
gen ito
j an
ess enza
ell one
Ġanda vano
zz erÃł
is sioni
T ARE
Ġprovve dono
Ġsottop oste
Ġatte stato
AT P
Ġinclu dono
g m
Ġesi sta
Ġinf anzia
Ġconfer mano
ui l
Ġsistema tica
ba t
ĠMa j
ĠDo tto
p l
ter za
uali zza
ĠA vi
Ø Ľ
Ġdove te
Ġsenti ti
r er
ella to
ĠUrb ino
Ġ erra
Ġpeggio ri
qu ista
ĠMoli se
C entro
Ġmar gina
Ġspetta colare
ĠC AN
ĠN ulla
Å ¾
mo la
lu livo
Ġmul ta
Ġattu alitÃł
Ġeduca tive
Ġaccetta bile
Ġconsi stenti
Ġcaval leria
Ġdistribui re
a bolizione
Ġmo ti
Ġgesti onale
Ġmin us
ĠB in
un try
Ġvor rÃł
n ome
Ġra me
Ġmen zione
Ġdar gli
Ġrisol ve
Ġvi tali
Ġpie montese
ĠT v
stra to
Ġmarche se
Ġservi ta
ER ALE
in Ã²
ĠF are
ĠCa stro
Ġs ma
Ġedi to
Ġqualifica ti
Ġarre stati
Ġconn essioni
ĠInnanzi tutto
Ġmoto cicli
ĠA genzia
Ġautore vole
gre ss
Ġsottoscri tta
in com
t v
f ol
Ġcolle gi
Ġcirconda rio
ĠDom ani
ziona ri
u er
ĠS TR
Ġaver la
ĠPra ga
E O
ĠCon tratto
Ġcircon dato
Ġavven ga
ĠI SO
ĠF ron
Ġeconomi e
gli eri
An no
Ġcellu la
Ġgoverna tive
Ġinnamo rato
ĠMa gno
z ando
Ġnomina ta
Ġscu do
Ġsubordina ta
Ġdescri tte
Ġbilan cia
Ġcland estini
Ġcasu ale
ĠO rdine
ca p
Ġscul ture
qu es
Ġpromo tore
Ġmanifes tare
Ġspa vento
ĠTerri torio
on anza
pp y
un tivo
Ġric ette
ĠPossi amo
c et
Ġcirc uiti
Ġk iller
ĠB at
ĠP IL
Ġar resto
Ġcomincia rono
Ġtra vol
Ġpas tore
Ġstri sci
di um
ĠRe fer
s ur
mm ia
Ġpun k
Ġfiloso fico
P RO
Ġtera pie
ccio la
Ġcontinu azione
Ġquattor dici
Ġsin tonia
Ġidenti co
zz etti
Ġriferi re
Ġsta mpo
No i
Ġpregiudi zi
Ġecc etera
ĠG un
Ġpuni to
Ġvaria re
v erato
UN O
ĠSTA TO
Ġs cora
ra bile
Ġpa ge
Ġpolizio tto
Ġca mpe
Ġfa ra
Ġpar tono
Ġpos e
Ġtratta si
ĠV era
Ġpresi dio
rescia llo
Ġconce de
et tÃ²
pro gramma
ĠAc qua
Ġasse mblee
Ġra dar
TI ON
Ġbar che
Ġsto p
ĠDocu mento
ĠAr no
ell enza
Ġcompren sibile
ll y
D ata
ver ti
ĠInforma tica
ĠFi re
ssi e
ĠM oni
ma ra
Ġfare mo
ns f
p ini
Ġtun nel
ĠSte ven
Ġmatura to
ul d
sp ie
Ġpro sa
Ġricev ute
Ġco cco
Ġsorpren dente
cra te
g inale
cer che
Ġcre ma
ere ditÃł
Ġbar riera
Ġper e
per lulivo
H z
ĠS OLO
Ġcamp ana
Ġpa gano
Ġleg almente
cri tti
Ġcontinu ando
Ho tel
Ġriusci va
Ġg inna
Ġtrib uti
Ġin ne
Ġg g
Ġpreoccupa to
Ġpresie duta
Ġsociali sti
ĠCultura li
id one
Ġper enne
Ġcru ciale
gn ani
Ġvo ta
Ġne gato
Ġcolpi ta
Ġcorrido io
Ġprogramma to
zzano tte
D ue
U e
se arch
americ ani
Ġpres bi
a bilitazione
Ġl us
Ġdenuncia re
Ġcarbu rante
Ġ( -
un k
Ġsoli di
ĠTa bella
ĠW ork
Ġprog ettare
Ġb oss
per ti
ri st
ĠMe to
Ġcattura re
Ġsimbo lica
Ġdom and
ĠP anta
ĠO landa
ĠCon so
Ġimplica zioni
ĠContempo ranea
Ġcolle gare
Ġsorpre se
ĠBri tish
Ġsub Ã¬
ĠQu es
Ġiso lato
tanea mente
m ulti
Ġuni verso
ĠRa gazzi
Ġde pre
Ġricogni zione
ĠAr ticoli
ffer enza
ĠBol lettino
ff re
Ġ10 8
ĠCh risto
Ġincarica ti
Ġmila nesi
ĠRis orse
Ġris ca
Ġomosess uali
mo da
Ġimpa zzi
or mai
ĠPro va
Ġpre avviso
Ġlingu istico
ĠR omeo
ĠE ast
Ġme mbra
Ġlo como
re li
e c
tan eo
Ġcredi bilitÃł
Ġpensi onati
Ġc ing
ĠPo te
MP A
Ġcarb one
Ġmen Ã¹
Ġe margina
ĠD elle
TI VI
ĠS ele
ĠS omma
Ġser eno
ĠK yo
INIS TRA
l endo
ta ggio
anna ta
ĠFor l
ella ta
Ġtrasferi rsi
ĠAb ruzzo
ĠR OS
lui re
ĠPre sso
Ġdesi gnati
Ġsacri fici
b rio
com mercio
Ġman uali
Ġdif ende
ĠR ese
ĠGirola mo
Ġpresenta va
Ġgeo grafiche
Ġcomp ortato
Ġtelef onata
Ġeman are
ĠSpor tiva
Ġleg go
Ġnomina re
ĠN ostra
Ġsele zionato
ann el
tino tti
va cchia
ga va
Ġcre diamo
p el
Ġg lu
ĠJ ona
ulla mento
Ġsosten uti
E TA
bol li
cur sione
ĠO b
Ġclauso le
Ġle sione
Ġpronuncia to
andica p
ws ki
Ġsvaria ti
Ġarti stici
t elle
ĠYo ung
Ġcoordina re
Ġalle anza
Ġrinno vata
ĠMac erata
ĠE SS
la i
ĠB usto
Ġclassifica te
Ġtermina ta
Ġdisoccupa ti
Ġavanza ti
Ġan ato
ĠOn line
Ġk er
imm issione
Ġcontribu enti
ĠOli mpi
stere bbe
Ġesprimer si
ĠC C
) ?
ĠChi ese
comuni cati
Ġricre a
musi ca
infer no
Ġpromo zionale
Ġpropon endo
Ġparro cchie
Ġelettr oniche
Ġsp un
Ġlun gi
Ġotti male
Ġimp lici
Ġcomple mentare
ĠVia le
Ġmono polio
Ġconsta tare
Ġ10 2
apparten enza
ĠY u
Ùį :
ĠImp eria
ĠRi pa
Ġp ne
f ron
Ġcresci uta
Ġe mble
Ġaccompa gn
Ġelen cati
Ġtra gico
Ġten ga
Ġcomple tata
Ġvisi tato
ĠP osso
Ġrisul tino
ell eria
Ġrigo rosamente
Ġin gi
ĠR ad
s el
ena mento
Ġrin for
et ter
Ġautenti co
ID O
ĠCer ti
G iu
ĠPo polo
Ġrica vi
Ġfla sh
che tto
ĠB un
A uto
ĠFerro vie
Ġclini co
Ġm altra
usse mburgo
Ġderi vare
c esso
Ġstan do
po ol
gua y
do pera
Ġsc omo
s Ã¬
Ġindi ani
ĠA ccade
Ġpresen tando
Ġstori o
Ġdesi gnazione
Ġabbra ccio
so rio
Ġbi mbi
Ġpor si
u rus
Ġseg mento
gi ene
ĠComi tati
nk ronos
ĠG au
ĠPro getti
Ġcolla terali
ĠM eno
ĠV ie
pro te
Ġmi granti
Ġconsi liare
li vello
Ġacca dere
ĠRela zioni
Ġimp utati
Ġ13 5
Ġsenti amo
ĠSe z
ĠAi res
Ġun anime
? Â».
Ġ ~
mis fero
ER IA
S ul
Ġgiusti ficato
Ġdetta gliata
Ġstra l
Ġcur ve
ĠLI B
en nali
Ġriferi ta
bur y
is h
Ġas tro
ĠSci ence
g esti
V IA
eni ce
ĠC uore
Ġdiven nero
ĠN er
ĠColomb ia
Ġconsecu tive
Ġbi ologia
Ġdire ttivi
VIS O
Ġs orre
Ġprogettu ale
Ġdis lo
Ġmole cole
Ġ11 1
Ġvi viamo
Ġve derlo
Ġripri st
Ġamp liare
Ġsor gere
Ġvero simi
ĠS IA
re sa
or ri
ĠIni zialmente
E sa
y es
Ġte x
ĠS qu
Ġre sterÃł
ĠN um
ĠNi col
Ġb alle
Ġca ris
ĠTe chno
ausi lio
Ġinsta llare
Ġnazi sti
Ġvinci trice
Ġmeri te
C CA
Ġcan tanti
Ġbla ck
li ght
Ġmi lli
go gli
Ġasse mblea
Ġdomesti ci
Ġindi ano
Ġopp one
z el
ĠV ale
Ġan elli
chi tÃł
Ġesp orre
Ġmuo vono
Ġarchite tti
Ġdecora zioni
ĠSuda frica
ĠEntra mbi
Ġpara gona
Ġvisuali zzazione
Ġgi uste
Ġd esta
en tino
Ġpos tato
Ġ26 7
Ġillu minazione
Ġaere e
Ġattraver sare
Ġmonu mentale
Ir landa
Ġespon ente
Ġan ello
news group
Ġprivile gio
Ġfa cce
ĠSal ve
Ġper duta
Ġstrate gici
Ġdeten uto
Ġspa rare
Ġsfor tuna
ĠR ettore
Ġcio e
Ġlancia ta
Ġaltrettan ti
Ġillu stri
ĠMal ta
L US
Ġrivel azione
ĠS EDE
] [
Ġmili ardo
ĠEss endo
Ġo bie
Ġar gento
Ġb inario
ĠM US
Ġconserva ta
ĠEn el
Ġeccessi va
ĠT hi
ono ra
ĠGu ardi
at ch
Ġan teriori
EN O
ĠPro ble
Ġefficace mente
Vene zia
S Ùī
HA HA
ĠOra rio
Ġmaga zzino
Ġdefini zioni
Ġven tina
ĠS ony
Ġdimostra ta
ĠPassi amo
ĠBos nia
Ġatti vazione
ra c
Ġindi scu
Ġmen sa
Ġinter azione
Ġconven uto
Ġitali a
Ġaccenna to
ĠShar on
Ġfini ti
Ġriba dire
Ġtitolari tÃł
Ġapprofon dito
in dustri
Ġse dere
Ġmeta fora
Ġono ri
Ġmor tali
ĠBamb ino
Ġ10 6
v ela
ĠB ron
Ġconsenti rÃł
Ġlo de
ĠREGI ONALE
Ġd vd
con sumatori
Ġarre sti
Ġassolu ti
Ġtransi toria
ce ani
Ġinfluenza to
pa ta
en dice
gu Ã¬
ĠS IN
Ġ11 3
z ziamo
ra di
Ġlo co
ven a
Ġgen erico
Ġfer marsi
Ġcalcia tori
Ġcaratteris tico
Ġvive va
Ġaffi tto
Ġabili tazione
ĠBal cani
Ġriconosci menti
ĠClau dia
ĠLa dy
ĠU p
Ġstimo li
Ġconten zioso
ly n
Ġcausa re
zza bile
Men tre
ri me
k ia
Ġre mi
ter ne
ĠC ho
so ciale
Ġriti rarsi
arci vescovo
Ġvul cani
ven ia
Ġfar li
Ġdeposi tato
Ġesp ulsione
ĠCla sse
euro pa
Ġdocumenta ta
Ġfiloso fica
ĠWeb site
d oss
ĠD ON
TA LE
Ġnu vole
Ġpres ero
Ġgiornali smo
ĠRom an
ĠCorpo ration
Ġatten tato
on al
Ġsp onda
Ġmaschi li
dor f
ĠBru ce
ĠCON C
ctu res
Ġcre denti
Ġdisper sione
Ġcal colare
r rÃł
per chÃ¨
Ġrap ina
Ġsviluppa te
ĠUE FA
ĠPa kistan
Ca tegoria
Ġere ditÃł
Ġappari zione
di sco
ĠLib ano
A merican
st ella
ĠPe ccato
Ġformu le
ĠC orre
Ġricon giun
k an
ggia va
Ġdice vo
ĠLu is
Ġspi cca
ĠRicor da
qu est
Ġpol veri
Ġstri sce
Ġmolti plica
Ġri pen
ĠBer na
d ante
ĠM ina
Ġmedia mente
Ġet nica
Ġin durre
Ġro mane
lui gi
Ġ12 4
Ġsovie tico
fa lo
ut ela
ĠChi unque
Ġitin erari
V ID
Ġper mise
cu re
e zza
Ġpresumi bilmente
Ġbolo gnese
Ġassicu rata
Ġbru cia
ga zz
Ġdisce poli
Ġpa zzo
Ġun d
abi tato
ali quota
ĠPRI MA
tar la
Ġcombusti bile
ĠP EN
E I
Ġin detto
Ġbatter ie
Ġrigi do
Ġs s
Ġlib erato
Ġcli cca
Ġresponsabili ta
ĠH un
abb azia
Ġemer genti
Ġsupersti ti
Ġinvi dia
Ġpelleg rina
IN PS
Ġdel usione
Ġpreca ri
Ġmi tico
sc ente
Ġdu re
Ġfabb riche
Ġdo gan
ĠUNIVERSI TA
Ġcolpi te
Ġaccor ge
ĠI na
ĠSo cial
ĠD urata
Ġregistra te
lo t
Ġeserci tano
ĠL ussemburgo
Ġpre ss
Ġosser vando
Ġnobi ltÃł
v t
C K
p lor
Ġa cci
I noltre
Ġle one
ĠMon tal
Ġsopp ortare
Ġaccompa gnare
ĠG alla
Ġ( *
ĠAcc anto
Ġemer gono
Ġcoinci de
Ġla ser
Ġmar x
ĠDu b
ĠSo pra
Ġsp ingere
ĠR eli
Ġ4 48
Ġin cin
Ġpre ma
Ġero gati
ĠB M
Ġmanif esti
ess er
Ġtossico dipen
H e
Ġvi sioni
ĠSC UO
Ġrisparmia re
s m
Ġrica vato
ĠAre zzo
Ġistru ttore
u fra
Ġmis cela
ĠBe at
Ġ19 08
ÃŃ a
Ġeccessi vamente
ĠBos co
pe dini
val le
u fficiale
Imp eratore
ord on
ci etÃł
Ġobbliga zioni
Ġtrib unali
Ġcri p
men i
Ġriferi rsi
ro ugh
Ġdi tte
IS I
Ġcur ri
Ġa tro
Ġcar enze
Ġpubblici tario
Ġverifica ti
Ġba ci
Ġ2 20
Ġca tali
Ġpe pe
Ġbor ghese
Ġrivolu zionario
cos Ùī
Ġrice vono
Ġide ato
Ġderi vato
Ġcomp ete
lari tÃł
Ġma c
Ġcollo qui
Ġalle ato
Ġ6 26
Ġpe cca
Ġauspi ca
ĠTer za
ĠD onato
ĠDar k
al lu
Ġse ppure
19 89
Ġforni tore
Ġconforme mente
G GI
Ġc fr
ĠSiste mi
Ġriconos cono
ĠBer to
ĠA A
Ġvorre bbero
ĠQu elli
ĠGu er
Ġo pen
Ġreali smo
moni ca
ĠUni on
ire less
ori entale
Ġudi enza
An ti
Ġg etti
D R
ES TE
Ġiscri tta
ĠFer mo
Ġsper ando
Ġpalcoscen ico
ciclo pedia
app are
ĠA gn
imp a
ĠA tta
A na
ĠH ong
Ġpremia to
ti tolo
Ġsegna lati
Ġin chiesta
Ġtrovere te
Ġl ordo
Ġrilan ciare
si ana
ĠSe p
Ġringra ziare
ĠOv est
EN DA
tu rno
ĠOrgani zzazioni
ĠA dam
one y
ĠLa vora
Ġarro ton
Ġb ell
fon ia
era bile
ba ch
vo ur
vi di
E le
ĠâĢ Ļ
ĠE duca
ĠO x
Ġfabb ricato
; ,
pi ro
Ġcandida ture
Ġimprendi tore
tta ggio
ĠAl ba
ĠGe org
ĠMo ore
Ġblu es
Ġabbi gliamento
Ġch io
Ġcoper te
ĠD L
D C
tter ia
Ġa genzia
in al
Ġriporta no
Ġdisp ongono
Ġdif ensori
Ġperven ute
Ġcorrispon dono
Ġimpu gnata
Ġpa es
Ġequi libri
ĠLo ggato
tr ona
Ġ2 30
Ġsana toria
on to
Ġla ghi
Ġall ine
na re
Ġpro di
ĠIl lu
ĠNi cole
v ard
Ġdiven endo
ĠP ea
ĠVi rgilio
Ġinventa to
Ġani mato
an io
Ġritro vano
Ġin visibile
vi ca
s toria
ĠG and
Ġgesti onali
ĠBu enos
Ġi ter
Ġd ossier
Ġimpegn arsi
Ġe terno
ĠE h
Ġmod esto
Ġlun gh
Ġai u
Ġaumenta no
Ġper no
Ġmarcia pi
ĠCo ff
ĠGEN ERALE
Ġa zz
ĠCar la
Ġsegna re
Ġquantita tivo
Ġese gue
Ġcar ceri
f le
tagon ista
ombar da
zz arono
Ġpse ud
ord en
Ġsotto stante
in ing
C CHI
ĠDip loma
Ġm omen
eli co
ann ullamento
ĠLib ia
cco lo
Ġparti giani
PE F
ĠFran z
b l
estre ma
hi m
gg ini
Ġdedi care
Ġcos pi
alle vamento
ha us
Ġmassa cro
Ġdina mico
Ġpref ettura
Ġpo vere
ĠGon za
Ġdi ur
Ġpe ti
Ġmigliora menti
Ġlimi tate
ĠSpa zio
Ġtorn ando
cf m
ĠS w
Ġuni re
Ġinuti lmente
Ġcerca va
Ġcon nazionali
a bbi
Ġcambia ta
ĠG he
su d
ĠBar tol
ĠT R
regi onale
ĠC R
Ġfil tra
au trice
sten ze
Ġva si
Ġado pera
Ġschiera mento
Ġnuo to
ĠE ttore
Ġries ca
Ġdomes tico
ĠBo y
ĠMar si
Ġdimostra ndo
Ġinfia mma
ĠP eri
ĠL yn
H P
ĠA more
Ã£ o
un ga
Ġbisogn erebbe
Ġtrasp ortare
Ġdemoli zione
uti litÃł
ĠN eri
ĠZel anda
ĠAcc ordo
Ġdisca rica
Ġformu late
ĠMe glio
Ġcristi ane
ĠM ini
ĠP DF
b ana
Ġtenta zione
Ġcon ca
Ġtu tor
Ġraccon tano
Ġmostra ndo
D io
c etta
Ġma gli
ĠSi mona
G R
g Ã²
Ġinfini ta
Ġuniversi tarie
Ġconsecu tivi
Ġun gherese
Ġsemb rerebbe
si as
Ġcambi ando
unci ando
inter ro
Ġoccupa zionale
ĠMan fre
Ġe vo
Ġeffetti vi
G re
ĠI mpi
Ġvol endo
Ġpelli cole
ĠNin tendo
ĠRo ad
vei coli
ĠGian luca
zion ando
Ġplu ralitÃł
ten ei
Ġgra ti
ĠFranc es
Ġnom ine
Ġcrista lli
ĠDo ug
ĠCos enza
Ġlavor Ã²
tec nica
ĠArchi vio
B en
Ġten da
Ġarri cch
Ġsan ci
Ġs Ã¬
Ġschiavi tÃ¹
ĠFran ca
Ġprog re
fon di
Ġriuni te
ĠDetta gli
Ġmin erale
ĠA U
ĠGen erali
Ġlon tan
Ġcaratteri zzate
kes pe
ona ggio
ĠT UR
Ġconvo cata
Ġsicili ano
ma tiva
ĠG P
SI MO
Ġrifle sso
ĠSO CIA
Ġinso ddis
Ġroton da
Ġs mettere
Ġro se
ul lio
Ġfron tale
Ġauto bio
ĠOlimpia de
Ġcalci stica
Andre a
Ġinnova tiva
inte g
inter rogazione
ĠWil son
Ġterape utico
z ino
Ġmili tanti
ĠA sh
ĠF uoco
O p
Ġl une
cen i
Ġo tte
ĠF oresta
Ġintro dotti
Ġparticolari tÃł
Ġla ico
Ġritro vo
te zze
ela ti
Ġbamb ine
ĠTe mpio
Ġinno centi
Ġsfru ttando
Ġin tenti
Ġscri ttrice
Ġ ron
Ġacce de
ĠEmer gency
Ġtra zione
Ġcie chi
Ġpre visi
Ġd Ã¢
lla ta
Ġriten ga
mo us
Ġcentra litÃł
! ...
vi bile
ĠImp rese
ĠAndr Ã©
Ġocchia li
ve d
spe ciali
Ġoper ante
ĠDO C
Ġu mori
Ġtecni camente
Ġmuta menti
Ġsan ziona
Ġarchitett oniche
Ġabitu ati
Ġedi toriali
Ġinflu enze
Ġprovo cando
Al bo
Ġconsenta no
Ġfon dÃ²
ĠBasi lica
Ġaffer mano
Ġprivilegia to
Ġricom in
ĠUlti ma
plor er
Ġ2 10
Ġj e
Ġvi eta
Ġstrate giche
Ġgio cÃ²
ĠBo ok
Ġpas tori
ĠEle c
Ġincer tezza
Ġmod esta
Ġconteni tore
Ġprovve derÃł
ffi ciali
Ġaccre dita
l Ãł
ĠO ccidente
tori um
Ġco ca
Ġnottur na
f etta
ca po
Ġla i
ĠN OM
Ġpor no
Ġconosci ute
Ġnego zia
Ġarchitett onico
Ġcoinci denza
ĠD onati
mar k
Ġfidanza to
Ġ10 7
dri ch
ĠDre am
19 88
Ġacc orto
ĠAl tra
Ġpi cchia
lu m
Ġ zia
Ġval li
ĠMichel angelo
Ġmisteri osa
ĠB elli
Ġcostrin ge
Ġmassi ccia
Ġgeomet ria
Ġpara g
Ġnasc osta
Ġprece de
lia s
Ġipo cri
ĠGior nali
Ġaggiorna ti
Ġcl ero
Ġtron co
Ġriba tte
b org
Ġpre dica
Ġsve glia
Ġricor date
Ġfe bbre
ĠPo chi
Ġnoti ficato
Ġsca ppa
ĠMer cato
Ġacc ettazione
Ġdistribui ta
ĠDAL LA
Ġpreoccup ante
ĠDa mi
ĠGior no
Ġragi onare
ĠMa rie
Ġir ro
ĠR ELA
Ġaccer tata
Ġtal une
Ġaf ro
Ġass er
Ġprosp etto
endo la
Ġpe ccati
p df
ell y
Per chÃ©
Ġsca denze
un der
Ġsta di
Ġno torietÃł
Ġeli mina
Ġsegua ci
gi an
Ġdile ttanti
ĠMil ler
Ġpote vo
Ġbrev etti
Ġsugg erito
ĠSet tanta
in venzione
m eli
Ġbi ennale
Ġlie vi
ĠAr si
qu asi
sta l
Ġall um
ĠJohn ny
Ġs ella
ĠDis cussione
atle ta
cu lo
ĠRese arch
re pubblica
Ġuni one
Ġappre so
tain ment
Ġrip eter
ĠBer tinotti
Ġpresi di
Ã© n
d alla
ĠSo uth
Ġpara ssi
Ġbol la
Ġminis teriali
Ġsospen dere
Ġma is
Ġinclu dere
Ġraggiun gibile
oni ere
11 6
ĠY e
Ġvisi vo
per tura
Ġpi zzi
Ġchia mo
Ġeste tica
tta no
Ġgra sso
a pi
ĠBro ad
ĠGiov an
C S
Ġlib ra
ĠBa ck
Ġimp li
Ġotti me
Ġbatte simo
r da
Ġa mano
Ġcer chiamo
Ġdov remo
ĠI mpa
Ġsonda ggi
Ġordin anze
Ġfavo la
Ġacc eso
Ġcontin entale
ĠE DI
gn er
Ġdistin to
ĠFI R
vol u
ĠPer altro
ĠRegi stro
len co
wei ght
IS T
no ve
Ġau mentando
Ġm ista
ĠRo ger
Ġavven gono
ov ese
ĠA chille
Ġrilascia ti
ĠSo fia
Ġden unce
be f
Ġmano dopera
Ġri pie
oni c
Ġopera ta
Ġaumenta ta
Ġcu lo
sc re
ra k
Ġpi anto
Ġtru ffa
ra ni
Ġspeci ficare
Ġvecchia ia
Ġdi ro
ĠPa d
ĠAr thur
Ġomici di
Ġi ronia
Ġpani co
Ġtro ppa
Ġscon to
x o
ĠF ore
ĠIS TITU
and omi
ĠA z
ro om
gli ando
ĠH usse
Ġimp eratore
Ġconver genza
Ġavvicin arsi
Ġprefer isco
edi toria
Ġassisten ziale
ĠN ar
ĠRe cen
Ġsal ta
o dore
ss ere
Ġs ha
esperi mento
Ġproie zioni
ali mentare
ba sso
in u
Ġsenti eri
Ġavanza re
ĠT es
enta to
estre mitÃł
Ġsla lom
Ù ħ
ĠBus iness
Ġcie co
Ġassicura tiva
Ġsp lendo
ci ttad
Ġali quote
Ġaff e
C it
Ġsusci tato
Ġpo ker
Ġsostitu to
Ġcontrolla te
Ġfabbri cazione
Ġg esta
Ġsp arsi
Ġcontraddi ttorio
Ġconcor da
du cci
Ġpa tate
app lica
ĠS hop
Ġfia mma
Ð ¸
tter Ãł
Ġistitu iti
O P
eff ettu
Ġle cito
Ġp lan
ĠRi guardo
ly cos
Ġtosc ano
Ġrina scita
rin t
ĠBo cca
Ġripa ro
Ġrilascia re
ĠVisi ta
GI E
.- .-
allar gamento
ĠLa s
Ġd anese
Ġestra tti
Ġri si
Ġtra duce
Ġcorre ggere
ĠPri x
ge vo
Ġsci vo
tecno logie
ĠVIS TA
Ġopport uni
ĠFa usto
C AR
Ġau thor
Ġliqui da
15 0
ĠS esto
d ell
Ġsal one
ĠContin u
Ġcondu cente
Ġcollegia le
Ġ28 6
Ġprom ul
ĠLe wis
tena rio
s one
Ġsovie tica
Ġfe gato
ĠSE MP
ucci sione
Ġgoverna tiva
Ġscri vi
ĠFla vio
ĠChi rurgia
Ġcollo cata
M er
li zzazione
f ale
Ġconserva tori
Ġdifferenzia ta
ĠMINIS TERO
Ġar ren
ĠS la
Ġw in
ĠCaro lina
Ġmate matico
omi to
ĠLi bri
cin qu
Ġca sti
orta ti
200 7
omi ti
Ġ11 6
ĠFer nando
Ġripet utamente
Ġpreten dere
A llo
Ġlegitti mazione
n d
Ġi bri
ana to
Ġgenera litÃł
Ġindiri zzata
ĠDis e
Ġdi cia
Ġp rendo
Ġscri pt
emi ttente
Ġprote tti
Ġspeciali sta
Ġguada gno
menta ti
Ġinten dersi
ĠIns erito
S pe
ide ale
Ġsotto s
Ġsociali smo
ra dio
Ġappar ente
Ġcala bre
v arlo
ra pp
Ġse z
A li
Ġoscu ro
a mente
Ġco pyright
Ġann ua
ĠCle mente
e f
Ġcamm ina
tu oso
Ġgiov ine
mo de
ĠD ino
Ġtermina li
clu b
Ġpos tali
Ġcorri spettivo
ĠRu ss
io res
po tenza
ĠRe ali
Ġ________________ ____________
Ġciocco lato
c qu
Ġeserci tazioni
cor po
Ġconte sta
acc ompa
F E
Ġdo si
AM O
chi esa
Ġsegui te
ia re
Ġco de
Ġsuddi visa
TOR IA
Ġtaba cco
Ġcas ino
ĠI gna
ĠTu tta
Ġesporta zioni
d g
Ġsono ro
Ġterri bili
ĠPa tria
Ġschi fo
Ġ19 09
Ġe quo
inten sitÃł
tin io
Ġreperi re
Ġcivi ca
Ġdimen si
Ġgen ovese
Ġdue mila
ĠInter viene
ĠModi fica
Ġetiche tte
ĠCatte drale
k on
Ġm etti
V IO
Ġsom mato
Ġventi cinque
ĠNo tizie
Ġsussi ste
Ġguard ano
e duca
cola ti
Ġistru ttoria
Q ui
mo ria
Ġcom and
Ġ17 0
Ġbar one
ĠM un
ĠFa mi
s l
shi re
Ġcol pevoli
Ġdivi dere
ĠMassimi liano
Ġsu onato
Ġdi rÃł
tolo gico
V AL
Ġna ufra
Ġfonda zioni
Ġmor talitÃł
cultura li
Ġ4 50
Ġinter val
Ġvi gne
Ġcostru isce
I P
f onda
ĠGiuli ana
Ġmole colare
Ġcor da
Ġlo c
ver sal
com un
enne dy
Ġsin c
Ġfac esse
Ġp ompa
Ġcera mica
Ġcoa di
Ġsostitu iti
Ġdifen dersi
Ġlingu istiche
Ġirach ena
ĠMar ta
Ġc y
lu cci
Ġbotte ga
ĠPelle g
Ġacc osta
g estione
Ġdi e
ĠA TT
Ġintelli genti
Se gue
ĠN ino
Ġprosegui to
sc ana
ck e
ĠSupre ma
ĠG allo
Ġforni ture
Ġdisputa ta
o ter
Ġmen zo
ĠSi cili
Ġprocess uale
Ġav rete
ĠSERVI ZIO
bo y
Ġalterna tivi
ĠLib erazione
mb ers
âĢ ļ
pi ani
dus bef
catto lica
Ar ci
Ġf ana
Ġpi rami
ĠMate matica
qu ella
Ġazzur ra
Ġcontribu iscono
ĠVis conti
Ġpossi bilmente
Ġappar ve
Ġcapp ello
istru ttoria
ĠLon go
Ġdelib erato
ĠS ce
Ġvir tuali
enn y
Ġfero ce
Ġordina rie
C P
Ġv ettore
Ġta mb
ĠCapp ella
Ġsca lo
Ġcor de
est y
Ġreda tta
Ġassi stenti
ĠE SP
ĠE in
Ġconf erire
lea se
Ġsigare tte
Cia o
Ġli mpi
Ġdisp etto
Ġrecu per
ĠMc C
ĠS cia
ĠCir colare
Ġstipu lare
Ġmanu fatti
Ġri scri
Ġco ri
ĠEurope an
ĠM P
ĠMessa ggero
D alla
ci dio
To pic
Ġa mata
V en
Ġla scio
Ġcre deva
rin ese
Com uni
Ġapp al
Ġro ta
Ġaff ini
acc ento
for ni
ĠMar x
Ġsoddisfa cente
Ġm osso
Ġos cura
Ġfal lo
mos sa
Ġsaper ne
Ġquantita tivi
ĠVe diamo
Ġva ga
Ġali ena
Ġtosc ana
! âĢĿ
Ġvi ttori
ĠAS L
ĠP E
ar mente
Ġisla mici
k ar
ĠIn contro
Ġpara dosso
Ġur la
Ġraffigu rante
ĠPro dotto
Ġriv este
Ġcu pola
Ġliber ta
e misfero
Ġdet tato
ĠMa ss
Ġpi ro
Ġstan co
Ġmis ti
Ġfinanzia ti
Ġse mmai
Ġba ro
Ġmeravi glia
Ġurbanis tici
Ġspe cchi
Ġme zzanotte
Ġsostan ziali
G ATO
Ġcen no
artico lazione
Ġsc inti
Ġcapo verso
Ġimprenditori ali
Ġs essioni
Ġri gen
Ã ¸
Ġenerge tica
Ġreagi re
Ġconsul enti
u al
ĠT RI
Ġoss essi
ĠManu el
Ġrinno vare
Ġpar ziali
Ġulti mamente
Ġmedio e
Alc uni
ĠComi cs
Ġequi vo
Ġinterro mpere
Ġambienta to
ĠE t
Ġbal lare
G e
car d
Ġistitu isce
ve y
Ġcredi bile
ĠS cal
ide ologia
Ġpoch issimi
Ġau le
Ġcard inali
Ġconf uso
Ġs essi
ĠHusse in
de d
Ġpa tti
Ġmediter ranea
Ġnapole tano
Ġd orso
Ġespro pria
ĠMana gement
Ġ6 75
ĠJ eff
Ġappren dere
ĠMer ce
Ġtrov ando
Ġconveni ente
ĠLe vi
Ġsin ta
Ġpre posti
Ġma es
Ġsopravviss uti
ĠCampa gna
Ġdi rti
Ġmar ine
ĠSlo venia
ĠCio Ã¨
Ġen d
te tico
Ġca bina
Ġtelef oniche
Ġger mani
sci mento
ra d
Ġne bbia
er os
Ġriten eva
g un
Ġpanora mica
Ġabband onati
ĠJu ve
Ġimpossi bili
Ġrisc uo
ĠBia gi
Ġavval endosi
ĠF arma
n umero
Ġfu or
dd h
Ġven dica
ĠPro se
ho use
ĠM B
Ġminori le
i g
Ġdiploma tica
Ġdef unto
Ġagg u
ĠSigno ra
Ġaudio visi
on cino
Ġte sa
o ccidentale
opera to
Ġpresi de
Ġsenso ri
ĠA th
via ggi
ET TE
Ġallum inio
tolo gica
cc anti
ĠP etra
Ġstu pore
tti ci
Ġfavor endo
ĠN OR
Ġucci se
Ġcombina to
Ġri tuale
Ġfon dare
s tendo
Ġin cante
Ġann ui
Ġcente simi
Ġto rinese
ĠVel troni
sc indi
ĠMinis teri
Ġ !!
etti vitÃł
ttu ta
Ġaccetta ta
Ġstu pen
Ġcon dono
Ġpiazza le
Ġing anna
c l
ĠPa sso
ĠK im
Ġdiploma tico
ĠSebasti ano
Ġman dati
ĠRin gra
Ġfeste ggiare
Ġrici cla
a ch
Ġscru tinio
Ġbanca ri
Ġdisa bile
Ġaggiorna re
Ġpresu ppone
Ġnostal gia
Ġcontribu endo
Ġsoffi tto
Ġse te
Ġteori ci
ĠKyo to
u cc
Ġrimp ro
ĠB AN
Ġtri an
lar mente
Ġ12 1
Ġdeci sero
Ġgro tta
Ġci tazioni
g go
Ġ ................
Ġma go
gg ine
ĠRi va
Ġequi vale
LI S
an ale
Ġgene ticamente
apposi to
AAAA AAAA
Ġriman da
acc el
assa ss
ÃŃ n
o tto
ĠQu arti
Ġtro feo
Ġpotra i
Ġcart one
Ġstamp ato
Ġribelli one
Ġpes care
Ġequival enti
Ġgall erie
ĠP ru
Ġlo tti
ĠO biettivi
Ġincompati bilitÃł
I ran
Ġger archia
ĠPa rola
App lausi
Ġl ond
ĠAu dio
Ã§ a
la scia
Ġre mun
Ġn ul
Ġcompi lare
ĠOr lando
Ġfra ttura
or u
u guaglianza
cade my
Ġal gorit
Ġdo tazioni
Ġta voli
ca ro
Ġdecentra mento
Ġesp lora
P res
Ġta ssazione
ĠSteph en
immedia to
pi te
tan t
Ġauto mati
Ġriconduci bili
b os
h al
pa sso
Ġga rante
ĠSche da
ese cutivo
E di
ĠPoli tecnico
ĠCar ne
Ġ- --------
Ġci eli
Ġresid enziali
Ġesti vi
ĠAn th
Ġmone taria
emi grazione
Ġchia cchi
zi p
Ġaccel erare
che s
ĠBe ppe
ĠContro llo
Ġmon signor
Ġcosti era
Ġcol ture
Ġrisp ettato
Ġentu sias
ĠP etro
f ur
ĠS CO
Ġ28 5
pro duzione
g ese
n ar
Ġvuo ta
Ġinfini to
Con ten
ĠDi ana
Ġsuper f
ĠArsi zio
Ġsuddi visi
ĠF ondi
col la
Au tori
ĠPatri ck
ĠPara diso
integ ritÃł
10 4
Ġyo ur
cea e
po lari
Ġorienta ta
Ġn ano
de zza
ĠO RE
Ġprocre azione
Ġdirig ere
ĠAnton ino
Ġmisura zione
Ġdichia rÃ²
Ġs qua
ĠInter vista
ĠAd van
Ġtributa ria
ĠN an
tri che
Ġli gne
Ġid rico
Ġsosteni bilitÃł
Ġanima ti
ĠS ene
Ġimp osti
Ġappar sa
Ġsupre mo
Ġar ca
Ġvi bra
Ġcart ello
ID Categoria
Ġstipu lati
Ġseri etÃł
Ġpare cchie
Ġta xi
Ġincenti vare
olo gie
Ġ12 6
a genda
ĠNi co
Ġcompensa zione
Ġcostru ttori
j on
Â° ,
Ġricev uti
An na
Ġclassifica ti
Ġviol ino
Ġma ro
Ġmoderni zzazione
es tin
ar l
cia o
Ġcal de
Ġfoto grafo
ĠBartol omeo
Ġon ere
umu lo
go verno
Ġabi tati
Ġvideo clip
dina mica
Ġfan go
ol ly
Ġindi ana
Ġc elle
Ġs mon
Ġatmos fere
1 000
ĠSal one
Ġfe udo
re lla
fa t
Ġpertin enza
Ġsimu lazione
Ġm ero
Ġmedi tazione
ĠLib era
Ġmus colare
Ġpse udo
DA LI
ĠBul garia
ĠMa tti
Ġprete sto
Ð µ
Ġsconfi tti
ran e
and ina
ĠColu mbia
ĠL inea
Ġdipen dono
Ġarchite tto
Ġsco prono
Ġes cursioni
Ġpare va
ĠE P
en di
Ġi p
Ġspie gano
Ġri visi
ma ria
N ess
bi ci
Ġtene va
Ġe messa
ca zioni
Ġven dute
Ġscar se
Ġmeravigli oso
> <
Y o
Ġn oma
Ġripet uto
Ġvi v
Ġpasse ggiata
contin ua
ya hoo
Ġreci tazione
ĠSo prin
Ġfi de
vi va
mi c
Ġsp rov
ĠCes ena
ĠGasp arri
ar ini
Ġ18 60
Ġcal di
Ġpreve dibile
Docu ment
Ġon ni
ma x
Ġcontrib ui
Ġvorre mmo
ost ini
Ġprete se
In forma
Ġcapo lavori
ĠGali leo
c ture
L AN
Ġper d
O spedale
Ġgli elo
Ġbi ologiche
Ġdebu tta
Ġgioi elli
appar tamento
ro ba
Ġav verso
bbedi enza
Ġf reno
Ġ15 7
Ġsepara tamente
Ġprestigi oso
Ġtar get
ven ne
Ġoccupa zionali
se zioni
Ġgio cano
Ġstati stici
Ġannuncia ta
Ġpo zzo
cel lu
ĠXX I
con om
ro e
ccol ta
Ġvege tale
Ġno zioni
Ġver sato
ĠCaser ta
eri ca
ĠB rindisi
Ġadegu are
me o
ĠEs erci
ĠPed ro
Ġscrive va
Ġindos sare
Ġdisa pp
Ġfre ga
Ġrista bili
ĠDo wn
odier na
ĠT RE
as tensione
Ġcli ck
inter essa
Ġdise gnare
Ġcata sta
ĠNA ZIONALE
Ġcing hia
Ġpoten ziare
s una
Ġdi ed
wi ck
Ġen de
Ġscanda li
ĠS na
Ġlegg eri
Ġstruttura to
b rica
ĠJo urnal
Ġdanne ggiato
G B
Ġcond anne
???? ????
Ġ12 3
ĠHo t
ĠAristo tele
Ġdimin ui
Ġsucce dere
ĠF uori
Ġfunzion ano
Ġta gliato
ced onia
Ġni di
Ġfasci sti
Ġchi es
ĠCom mer
Ġcon gressi
Ġimm uni
Ġarriv arono
la del
Ø Ł
ma t
Ġw elfare
Ġemer genze
Ġcerte zze
ing he
ĠIsa bella
Ġatti vati
Ġconn essa
ĠV ari
Ġinter fer
fa tta
Ñ Ģ
ar che
Ġborghe sia
ĠKe vin
Ġcono bbe
ĠT HE
Ġaccre scere
Ġaiuta no
Ġs blo
Ġgra mmatica
Ġbombar damento
ĠBan k
avven uta
Ġo cu
no va
Ġfabbrica ti
ĠSpa ce
Ġconsidere vole
ar ro
ĠC RE
Ġinizi ando
di d
Ġpu b
Ġproc essione
gior nali
Ġro vine
Ġallor chÃ©
der li
ction s
d Ã©
Ġscher zo
ĠPubbli ci
Ġinter conn
Ġveli voli
eri tÃł
Ġass essori
gn anti
Ġattu ata
Ġapprezza mento
S ei
Ġca meri
Ġasia tico
cch ina
Ġconsoli dato
Ġpercepi re
auto mobile
Ġsopp orta
Ġtra durre
Ġ01 1
rin ten
oma to
ĠJa zz
arbi tro
ĠF ro
Ġrivel are
ĠSUL LA
Ġdu ramente
Ġmano vre
Ġpila stri
Ġesplo rare
Ġlumin oso
Ġin adempi
ĠA mi
LI B
Ġimp ron
Ġris alto
ĠSche ma
av v
È Ļ
Ġravvi cina
o cc
Ġlavora va
ĠW omen
Ġinvesti tori
Ġgra ni
Ġos tilitÃł
Ġavven uti
Ġbus te
Ġa va
Ġabi to
ensi s
Ġstra ne
Ġvi zio
Ġsignifica re
Ġsport elli
âĢĿ )
id Cat
Ma il
Ġfesti vitÃł
Ġsupera ta
Ġdire sse
Ġtrov arono
Ġdiscre ta
Ġm use
Ġafri cana
ĠRIC ERCA
Ġferro vie
v etti
... ".
ĠModi fiche
Ġgiudica trice
ĠFort una
zu ela
ĠP lu
Ġcin tura
ght s
U TA
Ġdorsa le
Ġma ssime
ho u
ĠQu anti
Ġcaser ma
Ġfi ction
Ġmoni tor
Ġqualc un
Ġcresc endo
ĠVer sa
Ġper en
Ġriconos cendo
Ġafri cano
Ġcompi ute
Ġimpos tare
e mozione
ĠT hai
s ina
ddi e
Ġchi li
th ers
to scana
Ġcompre ssione
Ġgia cchÃ©
ro te
meri to
ĠCol li
Ġmona co
âĤ¬âĢĮ ,
RO M
unta in
Ġimpa ra
e mbri
Ġo ceani
ĠFa tto
ĠK ennedy
Ġcompet ere
Ġvaluta ta
ĠPla tone
ĠDis ciplina
ĠFa te
Ad nkronos
Ġconfer isce
Ġconsoli data
ĠQu er
Ġ4 45
Ġa matori
Ġav rai
Ġsperimenta zioni
uti sta
Ġriuni to
ĠCon gregazione
ĠC l
Ġm anto
di pendenza
Ġiner ente
Ġre gge
Ġonore vole
Ġca ssazione
Ġlegg ende
Ġestin zione
Ġdona zioni
Ġinedi to
mmo derna
qu in
ĠConse gu
Ġc ed
Ġasse gno
Ġqu anta
Ġ14 4
Ġaggre gazione
ĠGa ra
Ġtrascri zione
ri t
Ġosci lla
ĠWin d
EL O
g onale
ĠAr gomento
PP E
Ġs etta
lo ga
Ġes tro
ĠDe sid
Ġdevo zione
Ġre le
Ġaper ture
Ġesser lo
!!!! !!
do li
ĠCa iro
Ġsala rio
Ġsitu ati
Ġpresid enziali
val utazione
Ġasse mb
cla sse
ab uso
Ġtrasfor marsi
mol to
Ġde du
Ġri g
Ġestra nei
Ġmili tante
Ġguada gna
Ġattraver sando
Ġesau sti
ĠLo di
ĠE p
Ġdiale ttica
Ġpreferi ti
Ġn dr
ĠRe quisiti
digi lander
Ġan ke
b ania
Ġcos t
tan ei
ĠCircos crizione
o pen
fi cia
Ġriguar dare
Ġla mp
Ġvisi va
c tus
abi tudine
ĠEURO PE
ca so
incen dio
ĠAr che
ĠS tor
ĠSpi ke
f ro
den sa
ĠSav ona
tten imento
Ġrilascia te
g l
ĠCa va
Ġver bo
Ġpad ron
Ġvi b
ĠIn dica
Ġregola no
ĠM et
ĠTer ni
Ġ ****
Ġpla tea
lo cali
moni e
Ġperi zia
Ġdemocra tiche
Ġstatu ti
Ġpro stituzione
Ġor ri
Ġf rene
Ġliqui di
Ġsbar co
Ġsub li
re o
ĠUn gheria
ĠCI TTA
ĠUlti mo
Ġintrapre so
Ġmo dem
Ġriconos cer
gia ta
R is
do la
ĠAr turo
ĠAM M
Ġigi ene
In tesa
Su per
Ġpre dom
Ġsuper ano
Ġide ologica
ĠCara tter
Ġesemp li
ĠVla di
Ġan sia
Ġ[ /
Ġpar tori
Ġmi tologia
Ġrie qui
Ġdi ba
ccio le
Ġsfuma ture
ma ttina
Ġestra neo
Ġris u
Ġconvin zioni
ĠFre d
Ġbritan niche
ĠO ffice
Ġin duce
ma fia
ĠPer Ã¹
Ġaffron tati
Ġrivel ano
p ena
ĠPi u
Ġinfe zioni
ĠLun go
Ġindividu ata
Ġtorna ti
gli ese
Ġconteni tori
Ġspos tato
d rÃł
Ġgesti te
Ġdo ccia
anti chitÃł
Ġesa sp
Ġom onima
Ġsco zzese
Ġtra e
Ġrico prire
Ġgene tico
ĠA gen
Ġperse cu
ch an
ĠVi ctor
Ġecolo gica
ĠOR D
ET RO
Ġracc om
ĠPi ctures
ve si
ĠRi cerche
Ġinter faccia
Ġguada gn
uo ghi
ĠMo ha
Ġspetta colari
Ġsvaria te
ĠCol onia
ĠI ran
Ġpresie duto
ar k
Ġmod erato
Ġidenti ci
mor ra
Ġg ine
Ġsposa ta
ĠE ducazione
Ġammi ra
Ġsta mpe
bolo gna
Ġpossi edono
Ġsca tto
Ġtelef onate
ĠW oo
Ġprog ressione
id Art
Ġcinqu ant
ali e
d elle
Ġesp lica
ĠNa zionali
er ni
t ho
Ġsono ritÃł
u zzi
Ġcausa ti
Ġcelebra zioni
ĠS EN
Ġpredisp osti
Ġdistribui te
Ġsussidia rietÃł
Ġprop ose
al tÃł
tu d
CC IA
Ġsman tella
ĠN omina
Ġsatelli tare
ĠFRAN C
gu sto
Ġossi geno
ĠAtten zione
ĠNuo vi
Ġperiferi che
Ġ>> >
Ġapr endo
era tamente
Ġretro cessione
Ġasp ettando
F ON
Ġaffi date
Ġcere brale
Ġria ffer
ĠCa vour
Ġcorre spon
zza ro
gu s
ccia te
Ġalb anese
u b
ĠV escovo
ci ando
ann y
adolesc enza
Ġpre is
Å Ĥ
Ġingegn eri
Ġpalla volo
ĠB lan
12 0
ĠE du
ĠMi lo
ĠSEC ON
Ġre a
ĠL Ã¢
Ġingegn ere
Ġri vali
Ġpropor zioni
Ġist rui
Ġal col
Ġri organi
8 209
Ġcondi ziona
imm y
Ġsplendo re
ĠFla sh
Ġconcessi onario
mer cati
Ġnole ggio
si ano
Ġepisco pale
ĠRa ccon
ĠH al
ĠAV VISO
en ces
Ġbio di
Ġer etta
Ġna te
Ġrega la
Ġor gogli
ĠPi etra
Pa ge
Ġtar ta
Ġfi orentina
ĠNo va
Ġnasc osti
Ġtele camere
ĠAn toni
Ġraccomanda zioni
n um
pro getto
Ġsin cero
Ġcong ru
/ _
Ġpa gati
Ù ģ
EG NA
Ġisola ti
ĠAndre otti
Ġdise gnato
ĠRei ch
Tu tto
Ġvergo gn
Ġtre cento
Ġc ede
ĠK le
rest ling
ĠAle ssio
Ġcan tato
ĠStru ttura
Ġtra man
Ġspiri tualitÃł
ĠF RA
Ã§o is
Ġinterven uta
Ġsa sso
ĠI BM
Ġmetropoli tane
lo tti
Ġse me
Ġser vo
Ġattu ato
Ġricche zze
Ġproce derÃł
Ġperm etta
Ġpreval ere
Ġor na
Ġsistema tico
ĠM isto
Ġes ercenti
ĠNi zza
Ġabro gato
ĠSa ssari
Ġinci denza
Ġconcentra to
Ġaffian cato
s or
Ġto mbe
ĠAssi stenza
Ġquesti onario
Ġecc lesi
u f
Ġcol tello
Ġtal enti
Ġqu inte
Ġmar ino
ĠDo c
Ġmera mente
Ġrestri zioni
Ġradia zione
Ġorgani che
ull man
ĠS ri
Ġsupp ortare
Ġimbarca zioni
sc ina
Ġstra gi
ĠT ennis
Ġdedi cÃ²
int elle
ul ture
ĠO ve
Ġvol um
E P
li tz
ĠO sa
gh era
ĠPa per
f arma
ĠI no
Ġimpre ssione
ĠGeor gia
Ġri dosso
in gi
Ġbestia me
ĠStra sburgo
Ġri en
ĠAndre w
Ġetero gene
Ġcon v
Ġv ano
Ġ5 000
Ġmor Ùī
ĠChar lie
pp ort
Ġs messo
Ġsto cca
ĠAnder son
ere te
Ġba sket
PU BBLI
Ġpertin enti
Ġammissi bili
Ġinfini te
don to
Ġre ggimento
Ġpassa porto
ĠLi ga
Ġpersegui mento
o le
an ten
vol ino
and y
ma go
B ra
Ġprescri tti
Ġincin ta
ing en
col or
Ġrico vera
ĠRIC HI
Ġtra ppola
Ġn ono
gi onamento
Ġab uso
Ġma mmi
Ġ[ âĢ¦
ĠH onda
GG ETTO
Ġgiudizia rie
ĠSERVI ZI
ĠSca d
Ġrival utazione
ĠPerson almente
Ġsg omb
x a
ĠD eter
Ġsa rai
Ġtour n
Ġa tipi
ĠHo ward
p etto
Ġimpe gnano
Ġfo gna
Ġto cco
ĠCas ini
Ġpol moni
Ġconcor rono
Ġsuperiori tÃł
ĠH or
Ġvaluta ti
pen si
ĠVigi li
p art
Ġta ttica
ci c
Ġsvol gersi
Ġd r
go verna
Ġva so
\ '
ĠM IS
ĠC LA
Ġsegu Ã¬
tere bbero
ĠO pere
rona ca
Ġripeti zione
Ġcre scono
B E
cu rity
gh erÃł
Ġgiornali era
00 1
Ġfar vi
ĠS IC
Ġnota io
Ġchie dersi
vo si
ĠO ttanta
Ġcomple tezza
ĠGol den
Ġcra nio
tu osa
ĠSo cc
Ġletter ari
C CH
ĠS tiamo
ĠBra d
ĠP ann
ĠFur ono
Ġtorn erÃł
Ġcrona che
entu sia
ĠBene vento
Ġma resciallo
AN ZI
Ġsconosci uta
Ġmanipo lazione
ĠW ood
ĠRe ggimento
Ġpia ci
Ġcal za
es perto
Ġfoto copia
Ġapp la
ĠBa ch
Ġindiffer ente
Ġcorre data
Âł Â°
Ġcompli cato
Ġfor mando
Ġfe u
min ante
Ġdiver tenti
Ġintegra te
Ori ente
Ġcritica to
Ġsta cca
to so
Ġing enti
ĠMar oni
ĠSta dio
Ġmagni tudine
ĠIn c
Ġtras messe
Ġpericolo sitÃł
ĠEli za
da p
Ġf Ãł
Ġcro ss
m t
te m
Ġ13 8
Ġvi zi
gi ro
Ġfa centi
Ġpra tici
ĠMeri di
Ġtu bi
Ġing lo
Ġotten gono
Ġprepa rando
Ġvive vano
Ġcommi ttente
en g
sp ettacolo
Ġsegn ando
Ġspet tanti
doss almente
Ġcomp orre
metter si
s ha
ter bo
ex e
Ġpun tualmente
Ġtratta ndosi
Ġintrapre se
ĠRe gio
Ġante prima
Ġdeli cati
! ),
ĠG IA
Ġcausa ta
Ġcast elli
Ġarri vate
kespe are
li ti
ĠA y
Ġsc etti
C CO
Ġdocu mentari
Ġaspetta no
zia rio
mbri dge
Ġamm orti
c ts
inten de
ĠBil ly
e ccessi
Ġta lora
Ġinfil tra
ĠC osto
ĠSi tu
Ġconsa cra
ĠF IL
ĠWil l
à ¸
po tente
ĠN OS
ĠRom ana
p hia
ĠMi glio
sti mento
ttan to
Ġdebu ttato
Ġimmen so
ĠLudo vico
Ġille cito
Ġlavora tivi
. /
Ġscor rere
Ġcru dele
Ġchiari mento
Ġpubblicita ria
Ġsp ina
pe ti
gola mento
Ġfi les
Ġripro durre
Ġuni rsi
Ġti mbro
Ġno ia
Ġpoli zza
Ġmangia to
Ġgen u
a cciaio
Ġinacc ettabile
Ġatti rare
ĠAltri menti
m etti
ol ina
Ġcol pe
Ġcanta utore
P arte
Ġamm ontare
ch is
ttu azione
Ġdeli ca
Ġraga zzino
Ġal bo
Ġausi lia
Ġfragi le
co dacons
Ġfin anzi
Ġro cci
Ġrischia re
embri one
Ġapp orto
Ġserbato io
Ġin gra
Ġqu in
ĠA de
Ġnumeri ca
r g
ĠI sola
D el
Ġmon tato
ĠR AM
com mer
Ġo landesi
Ġto pi
Ġmira coli
Ġminis teri
Ġconven zionali
ĠMO D
ĠCa sta
ĠMetro poli
C CI
Ġcon sola
ĠMo tor
Ġ3 35
S cuola
Ġ15 1
ĠPref etto
Ġlon gi
Ġabba ttere
ĠArchite ttura
cente mente
Ġagg an
Ġtappe to
Ġcostella zione
Ġh orror
Ġlettera rie
Ġappo ggia
ĠCoff erati
Ġmaritti mo
k m
Ġc is
Ġri mettere
u gna
mo li
Ġquanto meno
Ġregola tore
Ġobbli gati
ĠBro ok
Ġme tano
Ġconvin cer
P e
ĠPe cora
Ġfondamenta lmente
mi t
Ġprog ettata
Ġconosci tiva
un ziata
Ġucci dendo
cra zia
R IA
ppi ano
Ġlibr erie
Ġspiri ti
BILI TA
Ġpenitenzia ria
Î ±
Ġ19 05
ter rÃł
Ġspos are
ĠCa se
ĠMA I
V II
ki j
Ġesa tta
Ġqualita tivo
tre tte
menta zioni
Ġmer da
er oso
Ġin a
Ġdiscen dente
Ġpu lita
Ġeste tico
ĠG as
ĠE i
Ġtrasfor mando
on no
Ġca mer
ĠM ille
Ġanticipa ta
cco la
Ġtesta mento
ĠFo ggia
Ġcon tenti
Ġprogettu ali
c esco
Ġin equi
Ġt rin
ghe si
Ġirregola ritÃł
Ġi oni
via ta
ĠCultura le
Ġricor d
Ġfoto grafico
ĠÃ ī
Qu esti
Ġcancella to
ĠAn ne
Ġconcomi tanza
Ġrin forza
Ġposse deva
Ġin vecchia
Ġla guna
ĠA teneo
ĠO rs
ura ti
Ġautore voli
Ġeste se
ĠI M
ĠYa ma
ĠUR L
Ġ19 07
ĠWar ner
Ġvo lan
El ba
ĠChi mica
Ġrisulta va
Ġman e
Ġcir coli
Ġille gali
siste mi
Ġri ta
pedini ere
ĠS at
ten ente
Ġm ettiamo
at tre
ĠTra pani
ĠRi cky
Ġe vince
Ġrifi utare
Ġso und
Ġ) ;
Ġster minio
ĠConf ederazione
Ġguar ni
Ġsperi mentato
Ġdom inato
Ġguar do
yo ff
Ġsba glia
Ġsvol gendo
Ġnu tre
enne simo
S ervi
ĠSte fania
Ġsig lato
sca l
ĠScienti fico
Ġfi tti
Ġaltre si
Ġconta dino
Ġcere ali
ĠMore tti
Ġsi l
ĠG ood
Ġcircos tanti
Ġcos tanti
Ġopp osti
Ġaffron tano
Ġin ven
ĠTec nica
ĠG M
ĠCristi ano
Ġs bal
Ġda tato
Ġinva ria
immagina rio
Ġe voca
Ġtra uma
Ġcorrespon sione
Ġa bile
incro cio
ccia mo
19 87
ĠSamu el
a cido
1 30
Ġfla g
Ġtrapi anto
anda ta
k Ã¨
ĠS essanta
Ġfor m
Interna tional
Ġd onato
um ano
ĠAI B
ĠA me
pu blic
Ġceleb rato
Ġesi lio
mo do
ed scuola
lo v
Ġbra va
ĠGa mb
Ġsfi ducia
Ġacco ppia
ĠW ei
ĠS cu
u ge
ĠMani festo
á ¸
Ġriempi re
ma ge
Ġproi bi
p to
ĠAr m
g ane
Ġgrandi ssimo
Ġpla ce
V e
Ġsa pienza
cc Ã²
vera i
su ali
Ġinvali ditÃł
Ġpre gare
Ġgaranti ti
F e
MP I
Ġbrev etto
Ġtestimoni ano
Ġbotti glie
Ġdi ssol
Ġpren dersi
Ġliber arsi
**************** ****************
Ġdis tanti
Ġmatri moni
ĠSe zioni
Ġresid uo
2 50
N U
d all
or lo
ĠV A
Ġfu ri
ĠIn vito
or y
ĠTor ri
Ġconosce va
ĠP enta
ĠG AR
Ġformu lato
ĠCA PI
ĠA zione
d ello
Ġe fficienti
Ġtan t
Ġc roni
met tente
Ġsce gli
G S
F ino
Ġfatti bilitÃł
Ġand arono
Ġepo che
Ġesposi zioni
ĠNi ccol
teni bile
Ġcons untivo
ĠMa zzini
Ġmis ero
r Ã¨
den t
ĠSper iamo
Ġri al
Ġan archi
Ġsopra tutto
illu sione
Ġalp ino
ab orto
Ġsalvata ggio
Ġgi ganti
com pre
Ġcomba ttuto
ĠMan cini
Ġcada veri
C er
m ela
Ġconcor rere
Ġp rudenza
Ġ19 0
Ġriba sso
Ġsoffer to
Ġha bitat
Ġinterroga tivi
G ar
Ġav uta
it s
ĠChi gi
Ġpre ziose
Ġecclesia stica
ĠF AR
Ġspet tante
and re
Ġprocesso re
Ġaff re
Ġdied ero
el etto
ĠSta lin
n os
f la
T ro
do v
Ġimma gin
Ġcol tura
ĠK ur
Ġmeccani ci
ĠSeni or
arci diocesi
Ġgri glia
ĠMerce des
Ġsoggetti vo
ĠIstitu zione
Ġnul litÃł
ca o
Ġsp eso
esp ortazione
Ġinci de
PUBBLI CA
Ð ½
Ġacu stico
ĠMart ina
Ġcann one
fi sico
Ġinforma le
Ġdif ensiva
Ġcostrin gendo
ĠPatri zia
Ġrinuncia to
Ġregistra no
Ġcaratteri zzazione
Ġfi ere
F U
ĠL ombardo
Ġimpon ente
ĠMar in
or f
Ġimpre vedi
Ġtras versale
im men
Ġma cchie
ĠO ro
Ġfissa te
ĠM ali
ĠGover na
Ġcor ta
19 85
Ġbatter ista
ĠTran s
ce mia
Ġincro cia
ac t
ĠTesta mento
Ġscri vono
p unto
Ġpreo ccu
Ġa vi
ĠImp ero
ĠCo op
B la
ĠSea ttle
ĠCOS TITU
Ġmon tana
Ġba ia
Ġpara gone
Ġpercor re
Ġlumin osa
ĠBri tan
Ġtur chi
T ARI
Ġcirco lari
con di
ĠFilipp ine
ĠBea ch
Ġgiovine zza
Ġf el
Ġrichia mi
Ġ bili
c elo
p oni
Ġ24 0
tanza ro
Ġprestigi osa
Ġre gali
Ġcoinvol ta
k top
ĠAg ri
Ġconf ed
ra m
ĠP IA
ĠCol onna
ĠGi ann
ĠIn se
Ġmezzo giorno
Ġmanten ne
ĠChie do
Ġbasta no
L S
pp ino
Ġpre ti
ĠQu alitÃł
n ull
10 5
Ġd oni
ĠCinque cento
Ġru mori
Ġcrea tore
ĠD ru
Ġisola mento
f s
ĠC lini
ver n
de tail
ca s
Ġso gnare
fica tore
Ġ3 88
ĠLi bra
Ġfin landese
Ġabi tuale
Ġriscontra to
? ...
en zio
ĠOr chestra
in for
Ġti rato
ĠSTA MPA
ĠHen ri
A cc
Ġm etta
Ġang losa
u mo
ĠCOMMIS SIONE
Ġg h
Ġfo glia
Ġpi xel
Ġeffettu ano
ĠApp are
otta vo
ĠC mq
ĠR SU
Ġdi amo
Ġmos tr
Ġanno vera
Ġriferi te
Ġmuni ti
Ġalb anesi
Ġy ard
Ġclini ci
G ia
Ġstabil Ã¬
o cchiata
Ġlu tto
gia te
Pre ss
ĠFi or
!!!!!!!! !!!!!!!!
Ġi dio
Ġsoddis fatti
ĠMarc oni
Ġresi stente
economi co
ĠA ZI
ĠE co
gru ppi
Ġra zionalitÃł
Ġfi orentino
ĠPal ma
Ġcl onazione
Ġsvilupp ando
ĠS OL
IN TER
ĠPsi cologia
Af ghanistan
li ana
man d
Ġira ni
ĠGre co
ĠProcura tore
are ware
ĠRi tor
Ġdis gra
Â ³
ĠFi om
ĠEx press
ar gi
Ġsupple mento
Ġma estra
19 86
ĠOgn uno
Ġ1 200
ĠP MI
C ir
ett uno
Ġcro mos
ĠB ren
Ġsignifica tivamente
t xt
Ġconserva te
Ġinna mora
ĠI a
Ġli mone
ĠGa zz
done sia
Ġcart oni
la tore
Ġavvia ti
de ci
ĠCami llo
Ġgoverna tivo
r eranno
Ġlascia r
ĠW ord
Ġme eting
Ġmal inc
Ġgel osi
Ġmagne tico
Ġdover oso
Ġri bella
il y
b usto
Ġcorre lazione
Ġconfe zione
Ġtri angolo
Ġguerri glia
Ġpara dossa
e du
ĠCh ur
ĠVo gliamo
ĠRA PP
Ġmatura ta
cipa to
ga la
ĠMos Ã¨
ut ine
Ġal bi
ĠP uoi
Ġcoadi u
Ġcondi vise
Ġqualifica te
ĠS ong
Ġsupple mentari
Ġrivol gere
Ġreci tare
Ġor me
Ġtre gua
Ġstra vol
elet tr
Ġfrequ en
vi r
ĠDi etro
Ġsu scita
ĠPro g
Ġpresen terÃł
ie zione
Ġ18 48
Ġmaga zzini
Ġmuni zioni
Qu ella
Ġguerri eri
ti de
Ġto gli
Ġpu lito
Ġchi lo
ĠS MS
ĠD ri
Ġprof eta
Ġnecessi tano
S h
osa uri
M is
Ġcomple ti
Ġspa ziali
Ġtren d
Ġsconosci uti
Ġdocu mentato
ĠGO VER
Ġnu bi
Ġdiparti menti
Ġfi to
Ġgaranti scono
Se mpre
Ġpre vale
Ġes tere
Ġtren tina
Ġinv este
ĠMI UR
ĠCIS L
sso la
w all
ĠD ina
Ġre ggi
Ġmin ia
Ġro manti
Ġ12 2
Ġporta foglio
Ġconte stato
Ġpa di
tio pia
Ġmis ericordia
Ġre tribuzioni
Ġmen si
Ġnorve gese
Ġin adegua
Ġli rica
ĠCom andante
ĠRis erva
Ġ7 50
di ritto
mil ton
Ã¼ n
Ġstipen di
Ġstan ca
letter a
ĠK y
Ġmani fa
Ġcomba ttenti
b anca
ĠCa pito
Ġsorpre so
Ġcurio si
te mp
Ġri ver
ĠFi le
cons ul
Ġmen zionato
deter minazione
ĠFel trinelli
% ;
Ġin vano
ĠGior nale
ar cipelago
Ġde cla
Ġorgani zzano
Ġcondi zionato
ĠFranci s
Ġatte si
on ente
Ġgem ella
ĠNa sce
re p
Ġcerti ficazioni
Ġc ronica
Ġvi di
Ġcontinua va
in cer
Ġringra ziamento
A utore
Ġta g
Ġconclu si
S cri
la us
ĠAn dy
Ale ssand
Ġdioces ano
** *
sca pe
Ġgratui ti
D es
C u
Ġage vole
Ġs ch
Ġsostitu i
Ġso tt
ĠLa mb
Ġdu ello
zzo la
Ġcaccia tore
colo gica
Ġimpie gate
er mi
Fi glio
Ġpoe ma
Ġ----------------- ----
g ana
Ġp rato
Ġconse gn
ĠPubbli cato
er iamo
lu e
Ġscoper ti
ĠU FFIC
Ġmonito rare
ĠUl teriori
i p
rio si
ĠCon go
Pro vincia
BER TO
t ÙĦ
Ġmanos critti
Ġani mata
solu zione
Ġp este
Ġtessi le
ĠU li
dito rato
Ġsono re
âĢ¦ ..
Ġstre tte
V OL
i cona
Ġcons or
Ġemi grati
n esty
Ġand ar
Ġbal ne
us er
ord ini
eff ettivo
ĠLu ce
ci pi
ĠT utela
Ġri media
zza va
illu minazione
Ġritro vamento
ran ta
meric ani
Ġautori ta
Ġdi li
Ġrecepi mento
Ġdistingu ono
ĠOR G
Ġdetta gliato
Ġsfi ora
ĠValen tina
ĠMia mi
Ġven ten
ĠIN DI
Ġperse cuzione
A zione
destra mento
Ġsare mmo
Ġconso lare
Ġcontribu tiva
Ġsimpa ti
ĠSa ba
Ġ18 00
ĠBea trice
giu dica
Ġren da
ĠIta lo
ca la
Ġscri ver
Ġpio gge
âĤ¬âĢĮ .
ĠGiuri sprudenza
Ġderi vata
ti es
ĠB IO
T C
ĠCom puter
Ġsin ceri
Ġeli min
Ġbenefi ciare
ĠItali ane
ri te
ma gari
Ġrius ciamo
S tra
Ġad ulta
Ġrecupera to
st rona
Ġer be
G o
Ġdisp erata
Ġportato re
ĠB BC
Ġalle anze
Ġ14 6
Ġarci vescovo
Ġos te
Ġcombusti one
Ġprovi der
Ġfu ci
Ġopp orsi
Ġvi talitÃł
ba d
Ġparall ele
vi glia
Ġter minare
Ġdol laro
Ġinno cente
Ġoccor renti
Ġprogramma ta
di bilitÃł
il ly
Ġimm inente
cy clo
; &
Ġci v
Ġtar ga
ni k
Ġdisp erato
r un
ter rori
li ato
Ġaustria ca
di ff
Ġdisp ensa
Ú ©
Ġsovra ni
Ġtrib una
al s
ĠProgramma zione
f anta
Ġdi rsi
Ġv s
Ġci to
Tu ttavia
u bi
Ġpi zza
Ġmus colo
entusia smo
Ġnor da
Ġde vol
Ġ19 06
al tre
Ġgeo grafia
ĠSara h
ĠI denti
Ġtelef oni
Ġpal li
ca ccia
da go
d anno
cu pero
Ġesa tto
ĠTerri toriale
Ġevi ta
Ġelen cate
Ġpre me
ord an
ĠLo ggia
Ġren dita
Ġin esa
os hi
Ġes u
Ġguari gione
Ġrisve glio
ĠFor mi
Ġrichia mata
Ġobbliga torie
Ġquaran t
ĠMunicip io
menta te
ĠVene zuela
Ġstru mentazione
Ġdisciplina to
ĠT RO
Ġlegitti mi
dimensi onale
Ġen zi
ore cchio
lin gua
affi da
ĠI scri
Ġriprist inare
ĠSud an
Ġven go
gos tino
Ġprom ossi
Ġpro sciu
Ġdiven tÃ²
D ia
Ġfa ro
ca tore
p he
Ġlavora zioni
ĠCE E
ĠDocu mentazione
Ġten tando
Ġri pensa
Ġsa pori
f uori
O ceano
Ã »
Ġin gressi
Ġstabil endo
ĠS esso
ĠDemocra zia
Ġaerop orti
ĠO O
ssa ti
Ġva dano
Ġcir cola
Ġimpie gata
Ġgri gia
t d
ci enza
vang el
Ġpos tazioni
Ġgetti to
Ġsov ente
dra mma
ĠDi oni
Ġrappres enti
ĠPro posta
ellan za
assass inio
cu men
c inale
Ġconsul tiva
estre mo
m uto
ispi razione
. );
R R
qu esta
gn one
Ġinquie tante
Par ere
Open Document
Ġabitu ato
ĠIN F
ĠClin ton
Ġassicu rando
ĠI D
Ġpsi che
Ġolimpi co
ĠOx ford
Ġw e
ĠB ono
i rre
Ġt rio
bb rica
Ġrega lato
Ġvuo ti
Ġver dure
Ġsu cco
Ġguada gni
Ġradia zioni
? ).
ĠS M
Ġtra i
Ġirre versi
Ġrappresenta va
k el
Ġsal utare
Ġremo to
ĠØ ©
Ġan tro
Ġpren derÃł
Ġfra me
gre ssione
ĠPre zzo
Ġperce pito
ĠSha kespeare
Ġpers ua
app unto
Ġsovie tici
Ġmolti ssime
Ġrisal enti
Ġinteragi re
pper tutto
Ġpa rig
ĠN azione
TA L
Ġprocla mato
unda tion
Ġvari ano
Ġsy stem
Ġuni ficata
Ġmatt oni
ĠSCUO LA
Su ccessivamente
ĠM ER
suna mi
Ġla na
Ġmuo iono
io lo
Ġarre di
certi ficazione
ĠMar vel
ĠAnton ella
Ġmatri monia
Ġte mere
Ġcostru ttore
Ġri mon
ven dita
Ġcompa ri
era tion
Ġsvilupp ano
e mo
Ġdebi tamente
Ġstre gua
Ġesplo dere
Ġinvol on
Ġadi biti
Ġvacc ina
Ġpatrimonia li
Ġeli minando
ĠLi ttle
quad ro
ĠSy dney
Ġcrista llo
m c
Ġsusse gui
ĠRina scimento
se mi
Ġaff lu
Ġ< /
Ġro cca
ĠNe uro
Ġmodifica te
Ġarra mpi
EL LE
Ġsugg erimento
voca tura
Ġdi rmi
ĠB andi
Ġpro ver
Ġ--------------------------------- ----------------
ĠAr mando
Ġbatter i
du sa
ĠCarra ra
Ġ________________ ________________
' ;
ĠV IO
Ġaccade mici
Esa me
ch eremo
Ġado per
Ġille citi
ĠC annes
[...]
